#include "model.h"

// We need to keep the data array aligned on some architectures.
#ifdef __has_attribute
#define HAVE_ATTRIBUTE(x) __has_attribute(x)
#else
#define HAVE_ATTRIBUTE(x) 0
#endif
#if HAVE_ATTRIBUTE(aligned) || (defined(__GNUC__) && !defined(__clang__))
#define DATA_ALIGN_ATTRIBUTE __attribute__((aligned(4)))
#else
#define DATA_ALIGN_ATTRIBUTE
#endif

const unsigned char g_model[] DATA_ALIGN_ATTRIBUTE = {
  0x20, 0x00, 0x00, 0x00, 0x54, 0x46, 0x4c, 0x33, 0x00, 0x00, 0x00, 0x00,
  0x14, 0x00, 0x20, 0x00, 0x1c, 0x00, 0x18, 0x00, 0x14, 0x00, 0x10, 0x00,
  0x0c, 0x00, 0x00, 0x00, 0x08, 0x00, 0x04, 0x00, 0x14, 0x00, 0x00, 0x00,
  0x1c, 0x00, 0x00, 0x00, 0x1c, 0x00, 0x00, 0x00, 0x74, 0x00, 0x00, 0x00,
  0xdc, 0x1a, 0x00, 0x00, 0xec, 0x1a, 0x00, 0x00, 0xb0, 0x23, 0x00, 0x00,
  0x03, 0x00, 0x00, 0x00, 0x00, 0x00, 0x00, 0x00, 0x02, 0x00, 0x00, 0x00,
  0x34, 0x00, 0x00, 0x00, 0x04, 0x00, 0x00, 0x00, 0xdc, 0xff, 0xff, 0xff,
  0x11, 0x00, 0x00, 0x00, 0x04, 0x00, 0x00, 0x00, 0x13, 0x00, 0x00, 0x00,
  0x43, 0x4f, 0x4e, 0x56, 0x45, 0x52, 0x53, 0x49, 0x4f, 0x4e, 0x5f, 0x4d,
  0x45, 0x54, 0x41, 0x44, 0x41, 0x54, 0x41, 0x00, 0x08, 0x00, 0x0c, 0x00,
  0x08, 0x00, 0x04, 0x00, 0x08, 0x00, 0x00, 0x00, 0x10, 0x00, 0x00, 0x00,
  0x04, 0x00, 0x00, 0x00, 0x13, 0x00, 0x00, 0x00, 0x6d, 0x69, 0x6e, 0x5f,
  0x72, 0x75, 0x6e, 0x74, 0x69, 0x6d, 0x65, 0x5f, 0x76, 0x65, 0x72, 0x73,
  0x69, 0x6f, 0x6e, 0x00, 0x12, 0x00, 0x00, 0x00, 0x64, 0x1a, 0x00, 0x00,
  0x5c, 0x1a, 0x00, 0x00, 0x3c, 0x1a, 0x00, 0x00, 0x24, 0x1a, 0x00, 0x00,
  0xfc, 0x19, 0x00, 0x00, 0xac, 0x17, 0x00, 0x00, 0x7c, 0x17, 0x00, 0x00,
  0x6c, 0x03, 0x00, 0x00, 0x3c, 0x03, 0x00, 0x00, 0xac, 0x00, 0x00, 0x00,
  0xa4, 0x00, 0x00, 0x00, 0x9c, 0x00, 0x00, 0x00, 0x94, 0x00, 0x00, 0x00,
  0x8c, 0x00, 0x00, 0x00, 0x84, 0x00, 0x00, 0x00, 0x7c, 0x00, 0x00, 0x00,
  0x5c, 0x00, 0x00, 0x00, 0x04, 0x00, 0x00, 0x00, 0x5a, 0xe5, 0xff, 0xff,
  0x04, 0x00, 0x00, 0x00, 0x48, 0x00, 0x00, 0x00, 0x04, 0x00, 0x00, 0x00,
  0xdc, 0xff, 0xff, 0xff, 0x10, 0x00, 0x00, 0x00, 0x24, 0x00, 0x00, 0x00,
  0x00, 0x00, 0x06, 0x00, 0x08, 0x00, 0x04, 0x00, 0x06, 0x00, 0x00, 0x00,
  0x04, 0x00, 0x00, 0x00, 0x01, 0x00, 0x00, 0x00, 0xeb, 0x03, 0x00, 0x00,
  0x08, 0x00, 0x0c, 0x00, 0x08, 0x00, 0x04, 0x00, 0x08, 0x00, 0x00, 0x00,
  0x01, 0x00, 0x00, 0x00, 0x04, 0x00, 0x00, 0x00, 0x06, 0x00, 0x00, 0x00,
  0x32, 0x2e, 0x31, 0x32, 0x2e, 0x30, 0x00, 0x00, 0xae, 0xe5, 0xff, 0xff,
  0x04, 0x00, 0x00, 0x00, 0x10, 0x00, 0x00, 0x00, 0x31, 0x2e, 0x31, 0x34,
  0x2e, 0x30, 0x00, 0x00, 0x00, 0x00, 0x00, 0x00, 0x00, 0x00, 0x00, 0x00,
  0x18, 0xde, 0xff, 0xff, 0x1c, 0xde, 0xff, 0xff, 0x20, 0xde, 0xff, 0xff,
  0x24, 0xde, 0xff, 0xff, 0x28, 0xde, 0xff, 0xff, 0x2c, 0xde, 0xff, 0xff,
  0xe2, 0xe5, 0xff, 0xff, 0x04, 0x00, 0x00, 0x00, 0x80, 0x02, 0x00, 0x00,
  0x13, 0xdf, 0x19, 0xec, 0x16, 0x04, 0x13, 0x01, 0x14, 0xda, 0x24, 0xe6,
  0x22, 0x01, 0x1f, 0x07, 0x02, 0xd0, 0x28, 0xe1, 0x2a, 0xf1, 0x14, 0xe6,
  0xfc, 0xd8, 0x3a, 0xeb, 0x2e, 0xf1, 0x10, 0xe6, 0x0e, 0xd7, 0x47, 0xe8,
  0x26, 0xf9, 0xf9, 0xc4, 0x15, 0xde, 0x49, 0xf5, 0x33, 0xe5, 0x05, 0xc6,
  0x23, 0xeb, 0x58, 0xf1, 0x38, 0xea, 0x05, 0xc5, 0x2a, 0xf8, 0x60, 0xfd,
  0x47, 0xdf, 0x00, 0xc2, 0x3a, 0x03, 0x70, 0x02, 0x56, 0xe1, 0x20, 0xbc,
  0x46, 0x01, 0x7f, 0xf5, 0x5d, 0xde, 0x2e, 0xba, 0x14, 0x6d, 0xdf, 0x0f,
  0xb4, 0xe3, 0xb9, 0xf2, 0x03, 0x76, 0xf2, 0x11, 0xb5, 0xf3, 0xb4, 0xfd,
  0x13, 0x61, 0xeb, 0x06, 0xba, 0xf7, 0xca, 0x06, 0x00, 0x6b, 0xdf, 0x21,
  0xb2, 0xf8, 0xd1, 0x08, 0x20, 0x58, 0xee, 0x12, 0xb7, 0xf8, 0xb5, 0x07,
  0x23, 0x4a, 0xdb, 0x02, 0xc6, 0xf9, 0xbf, 0xf5, 0x38, 0x43, 0xf7, 0xf7,
  0xc6, 0xf3, 0xb7, 0xfa, 0x33, 0x5d, 0xfd, 0x09, 0xc9, 0xee, 0xb4, 0xec,
  0x4b, 0x7f, 0x10, 0x30, 0xe0, 0xfb, 0xd4, 0xff, 0x54, 0x77, 0x23, 0x49,
  0xf9, 0x12, 0xc7, 0xf7, 0xcd, 0x1c, 0x11, 0x4e, 0x2d, 0x45, 0x56, 0x24,
  0xd5, 0x15, 0xe5, 0x2c, 0x56, 0x4d, 0x36, 0x18, 0xa7, 0xf7, 0xf0, 0x09,
  0x19, 0x48, 0x32, 0xf6, 0xbf, 0x12, 0xdb, 0x0a, 0x56, 0x37, 0x67, 0x11,
  0xb0, 0xdb, 0xe9, 0x50, 0x2c, 0x0b, 0x59, 0x14, 0xc8, 0xe5, 0x36, 0x0b,
  0x4e, 0x00, 0x1b, 0x33, 0x9c, 0xf6, 0x0d, 0x23, 0x41, 0x36, 0x37, 0x28,
  0xad, 0x8c, 0x2b, 0xdb, 0x10, 0xba, 0x59, 0xc9, 0xa2, 0xd6, 0x19, 0x04,
  0x15, 0x07, 0x7f, 0xe0, 0xe1, 0x97, 0x27, 0xeb, 0x63, 0xe9, 0x6e, 0xca,
  0xf6, 0x00, 0xf7, 0x3d, 0x01, 0x43, 0x33, 0x60, 0xb5, 0x00, 0xd6, 0x20,
  0xda, 0x18, 0x3c, 0x75, 0xe2, 0xda, 0xd2, 0x25, 0xd2, 0x2c, 0x23, 0x2c,
  0xbe, 0xc5, 0xd8, 0x28, 0xdc, 0x44, 0x24, 0x53, 0xef, 0xe0, 0xe9, 0xfa,
  0xf8, 0x44, 0x4e, 0x2c, 0xe8, 0xec, 0x00, 0xd6, 0xc6, 0x51, 0x18, 0x47,
  0xbb, 0xc6, 0xf4, 0x08, 0xdb, 0x52, 0x34, 0x7f, 0xb6, 0xc6, 0x03, 0xb8,
  0xff, 0x26, 0x39, 0x44, 0xb7, 0xb6, 0xe8, 0xe3, 0xfd, 0x1a, 0x4d, 0x51,
  0xb9, 0xcd, 0xd2, 0xd4, 0x1f, 0x5f, 0x3a, 0x57, 0xb5, 0xfc, 0xa6, 0x0a,
  0xad, 0x16, 0xa6, 0x0e, 0xe0, 0xe9, 0x97, 0xff, 0x99, 0x05, 0x81, 0xf5,
  0xd6, 0xeb, 0xd2, 0x23, 0xac, 0x18, 0x97, 0x2b, 0xcf, 0x44, 0xfd, 0x1c,
  0x9f, 0x45, 0x8a, 0x2b, 0x1b, 0x20, 0xdd, 0x52, 0xd2, 0x31, 0x9f, 0x31,
  0xf8, 0x12, 0x0a, 0x0e, 0xa8, 0xf4, 0xd9, 0xf9, 0x15, 0x53, 0xee, 0x36,
  0xae, 0x49, 0xe2, 0x11, 0x1a, 0x68, 0xe9, 0x73, 0xd3, 0x49, 0xd4, 0x1e,
  0xfe, 0x5b, 0xf9, 0x64, 0xe5, 0x7a, 0xae, 0x61, 0x0a, 0x65, 0x07, 0x5b,
  0xc0, 0x44, 0xd3, 0x5d, 0x1d, 0x71, 0x05, 0xfc, 0xd8, 0xf2, 0xb1, 0xfa,
  0x1b, 0x58, 0x04, 0x05, 0xbb, 0xdb, 0x9c, 0xfb, 0x1e, 0x53, 0x03, 0x12,
  0xc4, 0xe8, 0x9f, 0x07, 0x16, 0x61, 0xe8, 0x04, 0xb5, 0xe9, 0xc6, 0x04,
  0x25, 0x56, 0x15, 0x0b, 0xda, 0xe4, 0xc0, 0x05, 0x33, 0x49, 0x05, 0x00,
  0xe6, 0xe4, 0xc7, 0xfa, 0x4d, 0x57, 0x22, 0x13, 0xe3, 0x04, 0xc2, 0xfe,
  0x63, 0x57, 0x2e, 0x03, 0x06, 0xf1, 0xc3, 0xe8, 0x76, 0x5f, 0x5e, 0x31,
  0x05, 0xf7, 0xda, 0xf4, 0x7f, 0x4d, 0x6a, 0x09, 0x1b, 0xee, 0xf6, 0xd0,
  0x13, 0xdd, 0x71, 0x10, 0x0b, 0x0d, 0xf0, 0xaa, 0xbe, 0xd7, 0x0f, 0xb9,
  0x98, 0xdb, 0xa7, 0xf8, 0x0b, 0x1f, 0x67, 0x97, 0x29, 0x28, 0xe8, 0x08,
  0x0f, 0x09, 0xc7, 0xd3, 0x22, 0xc5, 0xa9, 0xea, 0xc2, 0x1f, 0x39, 0xae,
  0xba, 0x0e, 0x85, 0x1f, 0xf9, 0xc8, 0x1b, 0xa9, 0xfd, 0xfa, 0x7f, 0x21,
  0xf6, 0x8b, 0x57, 0xcb, 0xf6, 0xf7, 0xb2, 0xd2, 0xae, 0x7e, 0x34, 0x51,
  0x0c, 0x50, 0xbf, 0xa7, 0xbb, 0x14, 0x20, 0x9e, 0xe1, 0x2e, 0x05, 0x15,
  0xf0, 0xe5, 0x50, 0xc3, 0x18, 0xe9, 0x73, 0xbf, 0x24, 0x10, 0x2c, 0x1b,
  0x24, 0x20, 0xe0, 0xed, 0x1d, 0x16, 0x34, 0x12, 0x22, 0x06, 0xf1, 0xe9,
  0x01, 0xfa, 0x34, 0xf9, 0x18, 0xef, 0xf7, 0xcd, 0x10, 0xf6, 0x39, 0xea,
  0x26, 0xea, 0xf4, 0xc2, 0x06, 0xeb, 0x4a, 0xec, 0x28, 0xee, 0xed, 0xbd,
  0x12, 0xe8, 0x49, 0xf6, 0x26, 0xe2, 0xfb, 0xbb, 0x16, 0xf6, 0x5b, 0xe3,
  0x3f, 0xe1, 0x07, 0xbd, 0x27, 0xf0, 0x67, 0xe5, 0x48, 0xd8, 0x08, 0xb6,
  0x3a, 0xe8, 0x7f, 0xf3, 0x5c, 0xd8, 0x17, 0xb3, 0x3f, 0xea, 0x7e, 0xde,
  0x6b, 0xd4, 0x27, 0xa5, 0x6e, 0xe8, 0xff, 0xff, 0x04, 0x00, 0x00, 0x00,
  0x20, 0x00, 0x00, 0x00, 0xe4, 0xfe, 0xff, 0xff, 0x58, 0x00, 0x00, 0x00,
  0x6b, 0xff, 0xff, 0xff, 0xb8, 0xff, 0xff, 0xff, 0x33, 0x00, 0x00, 0x00,
  0x4e, 0x00, 0x00, 0x00, 0x1a, 0x00, 0x00, 0x00, 0x05, 0xff, 0xff, 0xff,
  0x9a, 0xe8, 0xff, 0xff, 0x04, 0x00, 0x00, 0x00, 0x00, 0x14, 0x00, 0x00,
  0xda, 0xfb, 0x2a, 0x29, 0x1e, 0xfb, 0xfb, 0xd1, 0xe8, 0xfe, 0x2c, 0x31,
  0x1b, 0x00, 0xf0, 0xdc, 0x10, 0x14, 0x14, 0x01, 0x29, 0x06, 0x1b, 0xfa,
  0x02, 0x0f, 0xfa, 0x05, 0x0d, 0x09, 0x06, 0x06, 0xfa, 0xfd, 0x11, 0x0a,
  0xef, 0x05, 0xea, 0xf4, 0x01, 0xf4, 0x0f, 0x0c, 0x08, 0xfd, 0xdf, 0x07,
  0xdd, 0x09, 0x15, 0x11, 0x1a, 0xfe, 0xda, 0xfa, 0xf3, 0x09, 0x08, 0xf6,
  0x11, 0x04, 0x0f, 0x01, 0xe8, 0x02, 0x2f, 0x2f, 0x39, 0xfe, 0x1d, 0xde,
  0xe9, 0x05, 0x19, 0x1f, 0x30, 0x06, 0x16, 0xde, 0xf3, 0x18, 0x04, 0x07,
  0x0a, 0x13, 0xe9, 0xe2, 0xec, 0x0a, 0x00, 0x04, 0x10, 0x08, 0x0b, 0xfa,
  0xe3, 0xfa, 0xfa, 0xf3, 0xfd, 0x01, 0xfc, 0xf8, 0xe8, 0xfc, 0xfc, 0xfa,
  0x1b, 0xf9, 0x05, 0xf4, 0xea, 0x06, 0xf5, 0x02, 0x0b, 0x06, 0x0e, 0xe9,
  0xe8, 0x0b, 0xfc, 0x0b, 0x0d, 0x0e, 0x0e, 0x09, 0xf8, 0xee, 0x0d, 0x37,
  0x2d, 0x0d, 0xf3, 0xd3, 0xee, 0x0a, 0x38, 0x1e, 0x16, 0x04, 0xfc, 0xf0,
  0x0f, 0x0a, 0xff, 0xfe, 0x13, 0x26, 0x09, 0xef, 0x0a, 0x02, 0x15, 0x08,
  0x11, 0x0d, 0xea, 0x11, 0x02, 0xf4, 0x0b, 0x02, 0x10, 0x05, 0x0d, 0x09,
  0x02, 0x00, 0xf7, 0x0b, 0x01, 0x00, 0x17, 0x00, 0x03, 0x03, 0x07, 0x10,
  0xff, 0xfb, 0x01, 0x02, 0x11, 0xf9, 0x04, 0xff, 0x01, 0x00, 0x0e, 0x1c,
  0xec, 0xe3, 0x31, 0x32, 0x28, 0xff, 0xf2, 0xe1, 0xeb, 0x06, 0x26, 0x16,
  0xf6, 0xf9, 0x0c, 0xeb, 0x15, 0x08, 0xff, 0x03, 0x0e, 0x0b, 0xee, 0xf3,
  0x18, 0xf8, 0x0b, 0x0e, 0xf8, 0x08, 0xea, 0x18, 0x07, 0xed, 0x0f, 0x0b,
  0x0a, 0xfd, 0x1b, 0x0c, 0x07, 0xf7, 0x20, 0x13, 0xe8, 0x02, 0x0b, 0xfd,
  0x1f, 0x0d, 0x18, 0x07, 0x00, 0x06, 0x02, 0x08, 0x12, 0x01, 0x10, 0x0d,
  0xff, 0x0d, 0x05, 0x29, 0xef, 0xe6, 0x14, 0x28, 0x2d, 0xea, 0x17, 0xd4,
  0xff, 0x15, 0x30, 0x12, 0x13, 0x02, 0x12, 0xfb, 0x0f, 0x0b, 0x1d, 0x11,
  0x0a, 0x05, 0xff, 0xfa, 0x24, 0x16, 0x0d, 0x13, 0x03, 0x0f, 0x1d, 0x0a,
  0x22, 0x09, 0x15, 0x15, 0x02, 0x10, 0xed, 0x1a, 0x2b, 0x05, 0x15, 0x1f,
  0x28, 0x01, 0xfa, 0xfc, 0x39, 0x0c, 0x06, 0xfd, 0x04, 0x16, 0x1a, 0x1a,
  0x47, 0x00, 0x15, 0x18, 0x0e, 0xff, 0x11, 0x20, 0xb7, 0xb0, 0x37, 0x1b,
  0x00, 0xd4, 0x01, 0xe9, 0xc9, 0xbb, 0x32, 0x23, 0x01, 0xe5, 0xf5, 0xf0,
  0x04, 0xe7, 0x08, 0x03, 0xf2, 0x07, 0xfa, 0x04, 0x26, 0xeb, 0x18, 0xfb,
  0xc5, 0xf0, 0x05, 0x2f, 0x3a, 0xf0, 0x26, 0x0b, 0xea, 0x06, 0x1c, 0x2c,
  0x16, 0xec, 0x14, 0x17, 0x15, 0x05, 0x14, 0x16, 0x31, 0xee, 0x11, 0x15,
  0x02, 0xfb, 0xf2, 0x31, 0x36, 0xf9, 0x0a, 0xf6, 0xf3, 0xfa, 0x0d, 0x24,
  0x99, 0x9f, 0x14, 0x14, 0x06, 0xaa, 0x03, 0xcf, 0xcb, 0xb1, 0x14, 0x25,
  0x00, 0xd0, 0xf8, 0xd5, 0xfe, 0xc6, 0x09, 0x07, 0xf1, 0xe6, 0x09, 0xf9,
  0x16, 0xcb, 0x15, 0x19, 0xdd, 0xdb, 0x0d, 0x18, 0x33, 0xec, 0x10, 0x04,
  0xd5, 0x04, 0xeb, 0x34, 0x3c, 0xf8, 0xf2, 0xff, 0xfb, 0x00, 0x1d, 0x27,
  0x33, 0xe8, 0x2a, 0x18, 0xf8, 0xf2, 0xfa, 0x24, 0x2e, 0xfb, 0x19, 0xef,
  0x14, 0xf1, 0x0a, 0x46, 0xa0, 0x81, 0xff, 0xf1, 0xe6, 0x8e, 0x00, 0xd3,
  0xb3, 0xab, 0x0c, 0x10, 0x07, 0xbf, 0x10, 0xe4, 0xef, 0xbd, 0x07, 0x17,
  0xf8, 0xd2, 0xec, 0x03, 0x01, 0xb1, 0x1d, 0x0a, 0xc0, 0xca, 0xec, 0x23,
  0x46, 0xe8, 0x1c, 0x06, 0xf2, 0xf2, 0xfa, 0x43, 0x3f, 0xf2, 0xfe, 0xf6,
  0xe2, 0x01, 0x0d, 0x2d, 0x3e, 0xeb, 0x1c, 0x0a, 0xf3, 0xf0, 0xf0, 0x1c,
  0x04, 0xf7, 0x22, 0xf7, 0xe3, 0xe6, 0x10, 0x2b, 0xb4, 0xa5, 0xfe, 0x0c,
  0xfb, 0xa1, 0xfd, 0xd8, 0xbc, 0xa4, 0x05, 0xf5, 0xfa, 0xa9, 0x02, 0xc2,
  0xe4, 0xbf, 0x0c, 0x06, 0xee, 0xc8, 0xe8, 0xe7, 0x1e, 0xbf, 0x11, 0x07,
  0xd6, 0xd1, 0x02, 0x0d, 0x44, 0xdd, 0x02, 0xf6, 0xc5, 0x0c, 0x08, 0x63,
  0x61, 0x05, 0xe3, 0xe7, 0xe8, 0x07, 0x16, 0x45, 0x27, 0xea, 0xf6, 0x0f,
  0xf5, 0xe9, 0xfd, 0x31, 0x3b, 0xea, 0x05, 0xe2, 0xf1, 0xf4, 0xe2, 0x2a,
  0xd5, 0xb3, 0xd3, 0x11, 0x0f, 0x91, 0x07, 0xb9, 0xb4, 0xa9, 0xf7, 0xeb,
  0xf8, 0xbc, 0x05, 0xcc, 0xfa, 0xa9, 0x00, 0xfb, 0xef, 0xc7, 0xf1, 0xf9,
  0x0b, 0xb0, 0x1b, 0x0e, 0xcc, 0xd3, 0x22, 0x1c, 0x60, 0xec, 0x04, 0xf4,
  0xd6, 0xee, 0x01, 0x4a, 0x76, 0x0e, 0x06, 0xcd, 0xee, 0x19, 0x02, 0x45,
  0x1b, 0xf5, 0xfb, 0xe4, 0xe0, 0xf1, 0x15, 0x34, 0x25, 0xda, 0xff, 0xdd,
  0xfa, 0xef, 0xf8, 0x38, 0xe9, 0xda, 0x06, 0x1a, 0xe4, 0xee, 0x14, 0xe7,
  0xff, 0xf2, 0x2a, 0x27, 0x01, 0xf7, 0xfd, 0xea, 0xff, 0x01, 0x13, 0x0f,
  0xe0, 0x01, 0x22, 0xfc, 0x22, 0xf8, 0x06, 0x0f, 0xfe, 0x10, 0xfa, 0x21,
  0x07, 0x06, 0x19, 0x19, 0xd8, 0x07, 0xff, 0x00, 0xf8, 0xef, 0x22, 0x15,
  0xfd, 0xfa, 0x0c, 0xf7, 0x35, 0x01, 0x17, 0x2e, 0x1f, 0x11, 0x0b, 0x31,
  0x2c, 0x0e, 0x3a, 0x40, 0xf3, 0x0c, 0xec, 0x41, 0xf8, 0xd7, 0x0f, 0x31,
  0x06, 0xdf, 0x01, 0xe9, 0xf7, 0xdf, 0x35, 0x39, 0xff, 0xf9, 0x00, 0xf7,
  0xf5, 0x00, 0x0a, 0x02, 0xf8, 0x0b, 0x26, 0xf9, 0x38, 0xf4, 0x18, 0x0d,
  0xd5, 0xf8, 0xf4, 0x33, 0x0d, 0xfb, 0x0e, 0x0d, 0xfd, 0x04, 0xfa, 0x09,
  0x00, 0xf5, 0x2b, 0x22, 0x01, 0xfd, 0x15, 0x01, 0x33, 0xfa, 0x15, 0x24,
  0xfa, 0x06, 0xed, 0x3b, 0x35, 0xf8, 0x24, 0x1d, 0xf1, 0x03, 0x1f, 0x3f,
  0xdb, 0xbf, 0x06, 0x15, 0xfa, 0xca, 0xf1, 0xd4, 0xf5, 0xd7, 0x0c, 0x26,
  0x06, 0xf4, 0xf5, 0xe4, 0xfc, 0xec, 0x13, 0x11, 0x03, 0xec, 0xf8, 0x00,
  0x24, 0xef, 0x0d, 0x05, 0xd8, 0xfe, 0xf7, 0x35, 0x2b, 0xf4, 0x05, 0x03,
  0xe2, 0x01, 0xed, 0x2d, 0x1d, 0x01, 0xf5, 0xf5, 0xf4, 0x01, 0xf8, 0x0f,
  0x49, 0xf8, 0x23, 0x08, 0xfc, 0x0b, 0xed, 0x40, 0x2c, 0xf7, 0x23, 0x10,
  0x0d, 0xfd, 0x13, 0x58, 0xdd, 0xcd, 0x10, 0x41, 0xf4, 0xc7, 0xec, 0xd6,
  0xdd, 0xe4, 0x1b, 0x05, 0xf5, 0xe8, 0x0b, 0xec, 0x12, 0xeb, 0x08, 0xf9,
  0x09, 0xf0, 0x19, 0xf8, 0x2e, 0xf2, 0x1c, 0x16, 0xce, 0xf7, 0xf8, 0x33,
  0x22, 0xfe, 0x0c, 0x12, 0xf1, 0x0e, 0x01, 0x3a, 0x2b, 0x00, 0xdb, 0xfa,
  0xf7, 0xff, 0xee, 0x18, 0x3b, 0xfc, 0xfc, 0x1f, 0x1a, 0x06, 0xfa, 0x31,
  0x52, 0xff, 0x0a, 0x03, 0xf1, 0xfe, 0xf6, 0x67, 0xcc, 0xa8, 0x1f, 0x26,
  0x23, 0xc0, 0x1a, 0xd1, 0xea, 0xbe, 0x2c, 0x30, 0x07, 0xd7, 0x15, 0xe5,
  0xfa, 0xf1, 0x09, 0x10, 0xdb, 0xf6, 0x18, 0xf9, 0x33, 0xdd, 0xef, 0xfb,
  0xd3, 0xf2, 0x11, 0x2b, 0x23, 0xf5, 0x09, 0xe1, 0xcc, 0xfe, 0xeb, 0x21,
  0x1d, 0x01, 0xf0, 0x15, 0xf1, 0x00, 0x06, 0x0d, 0x1e, 0xf1, 0xe9, 0x12,
  0xfd, 0xff, 0xfd, 0x19, 0x34, 0xf5, 0x1b, 0x09, 0x15, 0xe9, 0x0c, 0x49,
  0xc4, 0xb1, 0xf4, 0x31, 0x10, 0xca, 0x03, 0xae, 0xe3, 0xd8, 0x28, 0x28,
  0x0d, 0xd3, 0x0a, 0xc1, 0x0d, 0xff, 0x14, 0xf8, 0xe2, 0xf9, 0xfa, 0xef,
  0x23, 0xe6, 0x07, 0x12, 0xd1, 0x05, 0xdb, 0x10, 0x19, 0x02, 0xf8, 0xf4,
  0xfe, 0xf9, 0x01, 0x28, 0x2f, 0x01, 0xfc, 0x1a, 0x07, 0x08, 0xef, 0x18,
  0x31, 0x06, 0xef, 0x26, 0xfa, 0x04, 0xf9, 0x2d, 0x31, 0x0a, 0x1e, 0x0f,
  0xf2, 0x07, 0x0d, 0x5b, 0xb3, 0xcd, 0x1f, 0x03, 0x06, 0xab, 0xe5, 0xb8,
  0xe8, 0xd4, 0x13, 0x1f, 0xe3, 0xc6, 0x11, 0xd0, 0xfc, 0xf9, 0x18, 0x01,
  0xd9, 0xe3, 0x06, 0xe8, 0x33, 0xdf, 0x06, 0xf9, 0xd5, 0xfe, 0x09, 0x1f,
  0x28, 0xef, 0xfc, 0xdd, 0xdb, 0x0b, 0xf8, 0x1d, 0x35, 0x00, 0xfc, 0x19,
  0xf2, 0x07, 0x03, 0x13, 0x3d, 0x0a, 0xf7, 0x20, 0x01, 0x0e, 0xfb, 0x45,
  0x3d, 0x10, 0x03, 0x0b, 0xf7, 0x09, 0xfb, 0x34, 0xb7, 0xa9, 0xfc, 0x15,
  0x13, 0xab, 0xfc, 0xa9, 0xda, 0xda, 0x22, 0x07, 0x04, 0xd2, 0xf3, 0xd8,
  0x12, 0xe0, 0xf1, 0xff, 0xf7, 0xf5, 0xfe, 0x0e, 0x35, 0xd6, 0x06, 0xfd,
  0xdf, 0xf4, 0xed, 0x1c, 0x45, 0xf3, 0x04, 0xfb, 0xd9, 0x07, 0xeb, 0x42,
  0x36, 0xf1, 0xf4, 0x0f, 0xd6, 0x01, 0x05, 0x29, 0x28, 0x07, 0x04, 0x05,
  0x0b, 0xff, 0xdd, 0x48, 0x3d, 0xfd, 0x1a, 0xfc, 0xee, 0x01, 0x11, 0x4c,
  0xcf, 0xb2, 0x05, 0x24, 0xf4, 0x9d, 0xe3, 0xa9, 0xde, 0xd2, 0x20, 0x2c,
  0xfd, 0xbd, 0xf5, 0xe7, 0x02, 0xee, 0x02, 0xfc, 0xc0, 0xd0, 0x08, 0xea,
  0x3e, 0xc4, 0x0c, 0xf6, 0xc0, 0xe1, 0x09, 0x33, 0x4e, 0xd6, 0x08, 0xf9,
  0xe6, 0xf7, 0x12, 0x4b, 0x53, 0xff, 0x03, 0x05, 0xdf, 0x04, 0xef, 0x3f,
  0x1e, 0xf5, 0x1c, 0xf8, 0xdd, 0xf6, 0x1a, 0x3f, 0x2e, 0xf0, 0x21, 0x05,
  0x01, 0xf1, 0x28, 0x4e, 0xcc, 0xc1, 0x15, 0x0c, 0x13, 0xce, 0xf8, 0xb4,
  0xde, 0xd6, 0xf7, 0xf9, 0x0a, 0xcf, 0x14, 0xd6, 0x0a, 0xec, 0x0e, 0xe9,
  0xbf, 0xee, 0x0d, 0xf0, 0x54, 0xca, 0x1b, 0x06, 0xbd, 0xd1, 0x0f, 0x4b,
  0x7f, 0xde, 0xf4, 0xe8, 0xc1, 0x0d, 0x02, 0x68, 0x7c, 0xfd, 0x12, 0x04,
  0xea, 0x05, 0xf7, 0x69, 0x3e, 0xdc, 0x0f, 0xee, 0xd2, 0xe2, 0x0c, 0x45,
  0x3a, 0xdd, 0xfc, 0xdc, 0xd1, 0xfc, 0x10, 0x4a, 0xdd, 0xe7, 0x15, 0x1e,
  0xf3, 0xda, 0xfc, 0xca, 0xd2, 0x07, 0x1f, 0x0b, 0xed, 0xfc, 0xf4, 0xcf,
  0x17, 0x04, 0x1e, 0x1b, 0xe9, 0x16, 0xf5, 0x1e, 0x13, 0xfd, 0x23, 0x11,
  0xf7, 0x03, 0x1e, 0x34, 0x0c, 0xf4, 0x15, 0x10, 0xf6, 0x08, 0xe3, 0x32,
  0x15, 0xff, 0x24, 0x21, 0xf2, 0x08, 0x1c, 0x19, 0x1a, 0x02, 0x3d, 0x24,
  0x01, 0x0d, 0x13, 0x12, 0x09, 0x09, 0x30, 0x1f, 0x03, 0x0d, 0x10, 0x36,
  0xc2, 0xdc, 0x11, 0x11, 0xf7, 0xd4, 0x0d, 0xca, 0xdb, 0xf9, 0xf9, 0x02,
  0xe5, 0xde, 0x22, 0xdc, 0xf9, 0xfd, 0x16, 0x16, 0xd1, 0x04, 0x20, 0x04,
  0x05, 0xec, 0x12, 0x00, 0xde, 0xfb, 0x03, 0x1b, 0x21, 0xf4, 0x19, 0xf7,
  0xe5, 0x07, 0x1f, 0x36, 0x15, 0xff, 0x13, 0x13, 0xf8, 0x06, 0x08, 0x13,
  0x01, 0xfa, 0x0b, 0x20, 0x1d, 0x09, 0x0d, 0x10, 0x10, 0x02, 0x2c, 0x01,
  0xee, 0x05, 0xea, 0x39, 0xb7, 0xd8, 0xf5, 0x14, 0x0e, 0xbb, 0x1a, 0xce,
  0xec, 0xec, 0x11, 0xfc, 0xe4, 0x03, 0x04, 0xed, 0x16, 0x10, 0x14, 0x12,
  0xf4, 0xea, 0x08, 0x04, 0x20, 0xf4, 0x17, 0xfe, 0xed, 0xf2, 0xef, 0x23,
  0x4f, 0xfa, 0x00, 0xe1, 0xfe, 0x08, 0x00, 0x41, 0x38, 0x04, 0x0e, 0x0c,
  0xd6, 0x0c, 0xfd, 0x43, 0x37, 0xfa, 0x03, 0x1d, 0xed, 0x03, 0xfd, 0x31,
  0x3b, 0xf6, 0x06, 0x00, 0x04, 0xfd, 0xe6, 0x4b, 0xd7, 0xd0, 0xfe, 0x34,
  0x19, 0xea, 0xf5, 0xc4, 0xfc, 0xf8, 0xf3, 0xf5, 0x02, 0xfd, 0x03, 0xed,
  0x08, 0xf8, 0x1b, 0x03, 0xdf, 0x08, 0xff, 0x0c, 0x20, 0xf3, 0x13, 0xff,
  0xe0, 0x10, 0x0f, 0x43, 0x4d, 0x06, 0x13, 0xfd, 0xd7, 0x0b, 0x02, 0x47,
  0x49, 0x0c, 0xfa, 0xfb, 0x04, 0x17, 0xf6, 0x38, 0x3a, 0x19, 0x07, 0xff,
  0xf9, 0x0e, 0xfd, 0x33, 0x31, 0x0d, 0x06, 0xfc, 0xfb, 0x0c, 0xf3, 0x40,
  0xc4, 0xec, 0x02, 0xfc, 0xf9, 0xe1, 0xda, 0xbf, 0xf1, 0xf1, 0xea, 0xff,
  0xe2, 0xf9, 0xe0, 0xd0, 0x14, 0xe8, 0xf7, 0xfd, 0x02, 0x0a, 0xf4, 0xf6,
  0xfb, 0xed, 0x07, 0xef, 0xc3, 0xe3, 0xf4, 0x27, 0x17, 0xf4, 0x07, 0xe1,
  0xf4, 0xf0, 0xe2, 0x40, 0x04, 0x02, 0xe9, 0xd5, 0xec, 0x06, 0xfd, 0x29,
  0x09, 0xfd, 0xe0, 0x03, 0xd2, 0x03, 0x12, 0x11, 0x26, 0xff, 0x0e, 0xf8,
  0xe1, 0xfe, 0xf0, 0x2f, 0xe5, 0xe8, 0xf6, 0x1d, 0xef, 0xe7, 0xe4, 0xdf,
  0xf8, 0xf2, 0x11, 0x13, 0xf2, 0x0a, 0x0b, 0x00, 0x1b, 0x12, 0xfc, 0x03,
  0xea, 0xea, 0x13, 0x09, 0x19, 0xe8, 0xf8, 0x0c, 0xd7, 0xe5, 0x0c, 0x2b,
  0x1b, 0x01, 0x02, 0xef, 0xbd, 0x05, 0xfc, 0x39, 0x21, 0x10, 0x04, 0xde,
  0xf2, 0x13, 0xf6, 0x27, 0x1e, 0x13, 0xe6, 0xe3, 0xd8, 0x09, 0xfb, 0x31,
  0x26, 0x00, 0xfb, 0xd8, 0x06, 0x07, 0xf6, 0x3a, 0xe2, 0xda, 0xec, 0x18,
  0x0f, 0xf1, 0x1e, 0xe8, 0xe3, 0xfd, 0x02, 0xfe, 0x0c, 0x01, 0x04, 0xf6,
  0x07, 0x11, 0xef, 0xff, 0x11, 0x0f, 0x26, 0x0c, 0x20, 0xf4, 0x03, 0xf2,
  0xf2, 0x10, 0x1b, 0x0f, 0x29, 0x08, 0x01, 0x08, 0xe0, 0x0e, 0xf5, 0x29,
  0x16, 0x0c, 0xff, 0xdf, 0xe5, 0x12, 0x14, 0x14, 0x2e, 0x07, 0xe9, 0xd0,
  0x00, 0x12, 0xe3, 0x1f, 0x28, 0xf2, 0xcc, 0xd4, 0xfc, 0x03, 0x00, 0x27,
  0x03, 0xca, 0x0e, 0x17, 0x17, 0xe4, 0xe3, 0xd1, 0xe5, 0x07, 0xfe, 0xf0,
  0x00, 0x18, 0xf8, 0xef, 0x42, 0x03, 0x13, 0x0d, 0xf3, 0x1d, 0xf6, 0x2b,
  0x20, 0x06, 0xf8, 0xfe, 0xcd, 0x0a, 0xed, 0x50, 0x51, 0xfa, 0xf7, 0xf7,
  0xcd, 0x0c, 0xfc, 0x3a, 0x3d, 0x16, 0xec, 0xeb, 0xf5, 0x05, 0x07, 0x2d,
  0x1d, 0xf5, 0xdf, 0xf3, 0xe9, 0x06, 0x18, 0x30, 0x30, 0xec, 0xeb, 0xe2,
  0xe4, 0xfd, 0x1e, 0x40, 0x17, 0xe7, 0x1e, 0x00, 0x0b, 0xce, 0xfd, 0xef,
  0xfd, 0x0d, 0x12, 0xed, 0xfe, 0x1c, 0x14, 0x01, 0x33, 0x11, 0x0d, 0xfd,
  0xc7, 0xfe, 0xd5, 0x39, 0x53, 0xeb, 0x09, 0xe9, 0xdd, 0x12, 0x02, 0x41,
  0x5b, 0x0a, 0xec, 0xe7, 0xf6, 0x0f, 0x11, 0x44, 0x61, 0x0e, 0xe8, 0xde,
  0xbb, 0x1c, 0x06, 0x47, 0x33, 0xe2, 0xdd, 0xe7, 0xe8, 0xfb, 0xfb, 0x29,
  0x20, 0xf5, 0xe5, 0xbb, 0xe1, 0xf2, 0x04, 0x2f, 0x22, 0xf3, 0xf9, 0xfb,
  0x0f, 0xfe, 0xf7, 0x05, 0x04, 0x08, 0x26, 0x04, 0x01, 0x01, 0x14, 0x28,
  0x26, 0xff, 0x03, 0xea, 0xe0, 0xe7, 0x06, 0x40, 0x50, 0xea, 0xf8, 0xfb,
  0xe1, 0xff, 0xfe, 0x40, 0x7f, 0xf5, 0x10, 0xdf, 0xcc, 0x12, 0xdd, 0x79,
  0x7d, 0x10, 0xf4, 0xdc, 0xbd, 0x28, 0x1b, 0x7e, 0x69, 0xee, 0xfa, 0xfe,
  0xc6, 0x01, 0x18, 0x39, 0x42, 0xe6, 0xf4, 0xd6, 0xcb, 0xfd, 0x04, 0x62,
  0xf8, 0xd7, 0x2b, 0x28, 0x20, 0xe6, 0xff, 0xec, 0xfc, 0xe9, 0x2d, 0x2d,
  0x02, 0xe5, 0xe3, 0xff, 0x09, 0xfb, 0x0c, 0x14, 0x1a, 0xff, 0x1c, 0x0c,
  0x0d, 0xfa, 0x19, 0x0c, 0xfb, 0x0c, 0xff, 0x06, 0xf0, 0x0b, 0x26, 0x23,
  0x0e, 0xfe, 0xf3, 0xf7, 0xf2, 0x03, 0x16, 0x1f, 0x20, 0x02, 0xd7, 0xfd,
  0x00, 0x28, 0x22, 0x18, 0x0c, 0x15, 0x10, 0x09, 0x12, 0x1f, 0x18, 0x1c,
  0x14, 0x25, 0x10, 0x2c, 0xfe, 0xcc, 0xfd, 0x25, 0xfe, 0xeb, 0xf8, 0xe6,
  0x04, 0xed, 0x2d, 0x21, 0x01, 0xf3, 0xf6, 0xf7, 0x0d, 0xec, 0x1d, 0x13,
  0x0e, 0x09, 0xdb, 0x0e, 0x0b, 0x02, 0x19, 0x18, 0xf2, 0xfe, 0xfa, 0x1d,
  0xfd, 0x0b, 0x30, 0x26, 0xfc, 0x09, 0x03, 0xff, 0x03, 0x07, 0x11, 0x1c,
  0x18, 0x0a, 0x05, 0xf1, 0x0c, 0x28, 0x1a, 0x27, 0x18, 0x28, 0xf6, 0x0f,
  0x13, 0x12, 0x2a, 0x00, 0x11, 0x20, 0x13, 0x1e, 0xdc, 0xb4, 0x1d, 0x21,
  0x12, 0xd6, 0xfa, 0xd5, 0xf0, 0xd8, 0x28, 0x3b, 0xf3, 0xf0, 0x06, 0xee,
  0x17, 0xec, 0x00, 0xf6, 0x12, 0xf6, 0xe9, 0xfc, 0x31, 0xdb, 0x0e, 0x14,
  0xe4, 0xfa, 0xff, 0x26, 0x19, 0xfc, 0x13, 0x1c, 0xec, 0x06, 0xf4, 0x1b,
  0x27, 0x09, 0x19, 0x1a, 0x12, 0x05, 0xf6, 0x13, 0x2f, 0x1c, 0x22, 0x0e,
  0x2c, 0x21, 0x1a, 0x2e, 0x2f, 0x24, 0x01, 0x02, 0x1d, 0x1a, 0x10, 0x48,
  0xcc, 0x9b, 0x12, 0x1c, 0x0e, 0xa5, 0xf3, 0xc1, 0xdf, 0xc9, 0x27, 0x33,
  0xfc, 0xea, 0xfd, 0xd6, 0xff, 0xbd, 0x01, 0x0b, 0xdb, 0xea, 0x00, 0x04,
  0x3f, 0xd8, 0x13, 0x15, 0xf7, 0xe9, 0xf7, 0x01, 0x33, 0xfe, 0x25, 0x13,
  0xfa, 0x0e, 0xea, 0x13, 0x2e, 0xfd, 0x07, 0x0c, 0x0f, 0x14, 0x04, 0x19,
  0x4d, 0x06, 0x16, 0x29, 0x07, 0x13, 0x0a, 0x26, 0x66, 0x07, 0x33, 0x30,
  0x06, 0x23, 0x1c, 0x36, 0x9a, 0x98, 0x1b, 0x1e, 0x04, 0x92, 0xf3, 0xa5,
  0xcc, 0xab, 0x30, 0x2f, 0x00, 0xbc, 0x26, 0xc2, 0xd3, 0xdc, 0x04, 0xfe,
  0x08, 0xd2, 0x21, 0xe6, 0x0c, 0xc4, 0x27, 0x01, 0xf6, 0xd1, 0xe6, 0xef,
  0x0e, 0xef, 0x12, 0x02, 0x15, 0xee, 0xe6, 0x1d, 0x20, 0xf5, 0x29, 0x0a,
  0xe3, 0xef, 0x06, 0x1b, 0x22, 0x01, 0x1e, 0x21, 0x1e, 0xf1, 0x13, 0x18,
  0x01, 0x07, 0x11, 0xe4, 0xfb, 0xee, 0x10, 0x11, 0xa1, 0x81, 0x07, 0x26,
  0xfc, 0x92, 0xe5, 0xb0, 0xbc, 0xa9, 0x26, 0x17, 0x1f, 0xa6, 0xf3, 0xca,
  0x03, 0xab, 0x00, 0x06, 0xee, 0xe9, 0x0b, 0xf5, 0x35, 0xcc, 0x21, 0x1e,
  0xcf, 0xce, 0x0a, 0x31, 0x2d, 0xe3, 0x0c, 0x0a, 0xdc, 0xf1, 0x14, 0x32,
  0x38, 0x09, 0x01, 0x04, 0xf8, 0xf3, 0x1f, 0x48, 0x34, 0xe6, 0x0a, 0xf1,
  0xe9, 0xff, 0xfe, 0x4e, 0x1b, 0xe7, 0xfc, 0xf0, 0xf5, 0xeb, 0xfa, 0x2f,
  0xba, 0x97, 0x08, 0x10, 0xf5, 0x8b, 0xed, 0x9f, 0xc3, 0xa0, 0x12, 0x25,
  0x2a, 0xa7, 0x23, 0xd5, 0x07, 0xe6, 0xf5, 0xee, 0xe3, 0xe7, 0xe6, 0xf9,
  0x1c, 0xc7, 0x0f, 0xff, 0xee, 0xc5, 0xf0, 0x34, 0x23, 0xe5, 0x06, 0xe2,
  0xcc, 0xf1, 0x17, 0x1e, 0x4a, 0xff, 0x00, 0xe7, 0xed, 0x00, 0xe8, 0x30,
  0x17, 0xe5, 0xe6, 0x1b, 0xfc, 0xff, 0x0c, 0x1f, 0x29, 0xed, 0xfa, 0xf6,
  0x01, 0x09, 0xf2, 0x46, 0xa2, 0xb4, 0x17, 0x19, 0x2b, 0xa5, 0xec, 0x8a,
  0xbf, 0xb2, 0xfc, 0x21, 0x19, 0xdc, 0xdd, 0xc2, 0x0d, 0xcd, 0xe8, 0xec,
  0xe5, 0xe1, 0x0e, 0x02, 0x51, 0xba, 0x00, 0xff, 0xd4, 0xdd, 0x19, 0x0a,
  0x3e, 0xcd, 0x0b, 0xde, 0xc9, 0xf1, 0xf6, 0x31, 0x5a, 0xf6, 0xf4, 0xf5,
  0xdb, 0x15, 0xe0, 0x3e, 0x38, 0xdd, 0xf1, 0xe2, 0xcd, 0xfe, 0xff, 0x0f,
  0x4d, 0xec, 0x0c, 0xde, 0x14, 0x03, 0x06, 0x4f, 0xbd, 0x96, 0xf4, 0x27,
  0x27, 0xb7, 0x00, 0x94, 0xea, 0xfa, 0xf2, 0x2b, 0x25, 0xd8, 0xe3, 0xd0,
  0xf1, 0xe5, 0xe4, 0xe6, 0xed, 0xd7, 0x10, 0xdb, 0x3a, 0x99, 0xf8, 0x00,
  0xb6, 0xb8, 0xef, 0x34, 0x46, 0xbc, 0x10, 0x02, 0xd8, 0xcd, 0xfa, 0x52,
  0x37, 0xe1, 0xec, 0xf2, 0xe9, 0xf3, 0xf8, 0x40, 0x37, 0xcf, 0xf5, 0xf5,
  0xce, 0xe0, 0x0c, 0x16, 0x39, 0xde, 0x19, 0xd1, 0xea, 0xfa, 0x29, 0x3e,
  0xad, 0xdd, 0x13, 0x22, 0x1d, 0x99, 0xe4, 0xc6, 0xc0, 0xe4, 0xdc, 0x10,
  0xf8, 0xe5, 0x18, 0xde, 0xeb, 0xb3, 0xfa, 0xf7, 0xe1, 0xd7, 0xfc, 0xf1,
  0x26, 0x99, 0xf7, 0xf2, 0xb5, 0xcb, 0x17, 0x0a, 0x4d, 0xb9, 0x05, 0xde,
  0xba, 0xda, 0x00, 0x4a, 0x46, 0xd0, 0xfa, 0xf2, 0x02, 0xe1, 0xf2, 0x35,
  0x24, 0xe2, 0xe0, 0x05, 0xe4, 0xe9, 0xee, 0x15, 0x2d, 0xd9, 0x08, 0xfc,
  0xfb, 0xea, 0x10, 0x52, 0xff, 0xdb, 0x0f, 0x16, 0x08, 0xeb, 0x07, 0xfa,
  0x08, 0xf2, 0x06, 0x1b, 0xed, 0x06, 0xf6, 0x19, 0x0a, 0xff, 0x14, 0x02,
  0x17, 0x0c, 0x0e, 0x13, 0xf2, 0x0a, 0x04, 0x10, 0x17, 0x0a, 0xf5, 0x10,
  0x04, 0x08, 0x05, 0x01, 0xf5, 0x0d, 0xe1, 0x0a, 0xf7, 0x1d, 0x04, 0xff,
  0x10, 0x0e, 0x01, 0xfe, 0xd2, 0x21, 0xfb, 0x01, 0xfe, 0x09, 0x08, 0xe2,
  0xe8, 0x17, 0x02, 0xee, 0x08, 0x02, 0x01, 0xfc, 0xfd, 0xdb, 0x11, 0x09,
  0xfb, 0xf0, 0xf7, 0xe5, 0x0f, 0xf3, 0x21, 0xfc, 0xff, 0x02, 0x09, 0x0c,
  0x07, 0xf6, 0x0a, 0x0b, 0x21, 0x08, 0x13, 0x0d, 0xf4, 0x11, 0x0a, 0x1c,
  0x0c, 0x0d, 0xe3, 0x0d, 0xf6, 0x0c, 0x1b, 0xfd, 0x25, 0x06, 0xe9, 0xf8,
  0xfb, 0x1c, 0xf8, 0x03, 0x0d, 0x13, 0xea, 0xf9, 0xce, 0x25, 0xef, 0x01,
  0x01, 0x0f, 0xdd, 0xe3, 0xec, 0x00, 0xfd, 0xfb, 0x0a, 0x05, 0x10, 0xfa,
  0xfd, 0xcb, 0x25, 0xfe, 0xff, 0xe2, 0xfb, 0xf9, 0x14, 0xe5, 0x12, 0x0c,
  0xf3, 0xf2, 0x07, 0x05, 0x1b, 0xf3, 0x0d, 0x12, 0x19, 0x00, 0x00, 0x0a,
  0xf5, 0x0e, 0x0e, 0x1e, 0x04, 0x0f, 0xf9, 0xf4, 0xeb, 0x10, 0x0f, 0xfa,
  0xf9, 0x02, 0x0b, 0x02, 0xf6, 0x27, 0x0b, 0x0b, 0x05, 0x16, 0xfe, 0x02,
  0xd7, 0x21, 0x0f, 0xf9, 0x22, 0x11, 0xe2, 0xf1, 0xe2, 0x07, 0x09, 0xf4,
  0x09, 0x00, 0xeb, 0xf8, 0x05, 0xcb, 0x11, 0x1f, 0x04, 0xe2, 0x0d, 0xf7,
  0x21, 0xdf, 0x15, 0x14, 0x03, 0xf9, 0xfe, 0x11, 0x1a, 0x04, 0x06, 0x13,
  0x13, 0x02, 0x0b, 0x0e, 0xe9, 0xfe, 0x14, 0x10, 0xeb, 0x00, 0x03, 0xf1,
  0xee, 0x03, 0x0d, 0xfe, 0xed, 0x00, 0xe2, 0xdc, 0xf3, 0x19, 0xfa, 0xf3,
  0x05, 0x04, 0x19, 0x04, 0xe7, 0x1a, 0x1e, 0xfc, 0x01, 0x0d, 0x11, 0xdf,
  0xee, 0x0a, 0x0d, 0xeb, 0xfd, 0x08, 0x27, 0x01, 0x14, 0xbc, 0x1f, 0xf1,
  0xfa, 0xe4, 0xfc, 0xf2, 0x1e, 0xe9, 0x16, 0x02, 0xfb, 0x07, 0xf3, 0x1c,
  0x20, 0xfc, 0x0a, 0x06, 0xfb, 0x10, 0xfa, 0x1c, 0xfe, 0x0e, 0x01, 0x20,
  0x1c, 0x25, 0x1b, 0x12, 0xfd, 0x26, 0xff, 0x00, 0x36, 0x1c, 0x1b, 0xf6,
  0x0e, 0x1e, 0x1c, 0x14, 0x10, 0x20, 0x13, 0x11, 0xfd, 0x16, 0x17, 0xfb,
  0x1a, 0x1d, 0xe7, 0xe5, 0x0e, 0x20, 0xf7, 0xda, 0x05, 0x23, 0x01, 0x06,
  0x03, 0xc0, 0x1a, 0xe2, 0x15, 0xcf, 0x0b, 0xf9, 0x11, 0xde, 0x0d, 0xe5,
  0xdc, 0xec, 0xf5, 0x1b, 0x1d, 0xeb, 0xf9, 0x04, 0xec, 0x0a, 0xdf, 0x1d,
  0x20, 0x02, 0x00, 0x1b, 0x1e, 0x17, 0xee, 0x02, 0x15, 0x09, 0x11, 0x08,
  0xff, 0x18, 0xfc, 0x15, 0x09, 0x1a, 0x1a, 0x0c, 0x02, 0x1e, 0xe9, 0x17,
  0x0c, 0x13, 0x11, 0x03, 0xf9, 0x1c, 0xfd, 0x20, 0x0a, 0x05, 0x01, 0xe2,
  0x05, 0x0f, 0xeb, 0x35, 0xe6, 0xa4, 0x0b, 0xf4, 0xe5, 0xad, 0x20, 0xd0,
  0x07, 0xa6, 0x07, 0xf0, 0x07, 0xdb, 0x05, 0x19, 0x06, 0xc4, 0x11, 0x21,
  0x1f, 0xf8, 0x05, 0x10, 0x19, 0xed, 0x1d, 0x2c, 0x02, 0xf4, 0x0f, 0x1f,
  0x17, 0x07, 0x11, 0x1e, 0xf5, 0x0a, 0xf6, 0x2d, 0x1a, 0x1e, 0x00, 0xf1,
  0xf3, 0x2a, 0x14, 0x1f, 0x0f, 0x1b, 0x02, 0xec, 0xfe, 0x02, 0x0c, 0x01,
  0xf9, 0xfb, 0xf5, 0xee, 0x0a, 0xff, 0x0c, 0x1c, 0xbe, 0x98, 0x20, 0xf4,
  0xfa, 0x9f, 0xfc, 0xdf, 0xc6, 0xb6, 0x12, 0x0e, 0xed, 0xb8, 0xeb, 0xf4,
  0x0e, 0xbf, 0x06, 0x2d, 0xe2, 0xbf, 0xe7, 0xd7, 0x00, 0xec, 0xfa, 0x2c,
  0x0a, 0xef, 0x11, 0xea, 0x08, 0xf3, 0x12, 0x0d, 0xe3, 0x26, 0x24, 0x23,
  0x23, 0x1f, 0x16, 0xfb, 0x10, 0x1b, 0xf6, 0x13, 0xf2, 0x09, 0x18, 0x0e,
  0xea, 0xf3, 0xdf, 0x17, 0x0f, 0xf8, 0x11, 0xdc, 0xf3, 0xfe, 0xf9, 0xf6,
  0xb2, 0x8e, 0x15, 0xf2, 0xf4, 0xa4, 0xee, 0xc2, 0xdb, 0x9d, 0xf6, 0xe7,
  0xdd, 0xb9, 0x08, 0xea, 0xf6, 0x91, 0xfa, 0x11, 0x01, 0xb0, 0xf5, 0x05,
  0xff, 0xc7, 0x21, 0x26, 0xd8, 0xac, 0xf3, 0xec, 0x21, 0xf4, 0x18, 0x04,
  0xf0, 0xfc, 0xe5, 0x11, 0x06, 0x0f, 0xec, 0xf1, 0x16, 0x0a, 0xfe, 0x0a,
  0x03, 0x0a, 0x1b, 0xf3, 0x03, 0xf8, 0x23, 0xfb, 0xee, 0xf6, 0x17, 0xd0,
  0xd8, 0xd4, 0x02, 0xf2, 0xd7, 0x82, 0xff, 0xf1, 0xe0, 0x9e, 0x13, 0xe9,
  0xd8, 0xa1, 0x15, 0x04, 0xfc, 0xa2, 0x1b, 0xe9, 0xe1, 0x81, 0x0a, 0x20,
  0xf5, 0xaf, 0xe9, 0xe3, 0x08, 0xc4, 0x2b, 0x29, 0xf7, 0xc9, 0xfa, 0xd5,
  0x09, 0x0b, 0x1c, 0x0f, 0x00, 0xe3, 0xde, 0x13, 0x08, 0x28, 0x1a, 0x0a,
  0x18, 0x23, 0x02, 0x3c, 0xf6, 0x15, 0xe9, 0xd1, 0xf2, 0xed, 0xf8, 0xfc,
  0x0f, 0xfb, 0x00, 0xd6, 0xf8, 0xf1, 0x16, 0x13, 0xfc, 0xf2, 0x15, 0x0c,
  0x1c, 0xfc, 0x0a, 0xe2, 0xf9, 0xf3, 0x17, 0x18, 0x16, 0x01, 0xf2, 0xed,
  0x07, 0x0a, 0x0c, 0x05, 0x16, 0x15, 0xf7, 0x08, 0x0a, 0x23, 0x08, 0xf1,
  0x0a, 0x12, 0x00, 0x15, 0xf2, 0x1c, 0xf3, 0xfc, 0x2d, 0x1d, 0xfa, 0xf9,
  0xe8, 0x0d, 0x0b, 0x0d, 0x11, 0x00, 0x14, 0xe7, 0xf0, 0xff, 0x00, 0x05,
  0x14, 0x05, 0x1f, 0xfe, 0x00, 0x02, 0x0b, 0x02, 0x02, 0xff, 0xec, 0x15,
  0xfe, 0xf7, 0x26, 0xfe, 0x21, 0xff, 0xdf, 0xee, 0x09, 0xfa, 0x0f, 0x1b,
  0x22, 0xfd, 0x18, 0x01, 0x0d, 0x0b, 0x03, 0x09, 0x1b, 0x0e, 0x09, 0xfe,
  0x01, 0x2f, 0xf3, 0xfa, 0x1e, 0x1e, 0xf7, 0xfb, 0xf5, 0x24, 0xfc, 0xfb,
  0x17, 0x12, 0x10, 0x04, 0xec, 0xff, 0x00, 0xf7, 0x1c, 0x05, 0xf4, 0xec,
  0xe0, 0x0b, 0x05, 0x03, 0x05, 0x00, 0xe2, 0xe6, 0xf6, 0x0e, 0x06, 0xec,
  0xf6, 0x04, 0xf1, 0x02, 0x08, 0xec, 0x19, 0x13, 0x28, 0xfe, 0x0a, 0xf0,
  0x17, 0xfb, 0x08, 0x12, 0x1a, 0x0b, 0x11, 0xff, 0x09, 0x09, 0x0b, 0x12,
  0x2c, 0x16, 0xf8, 0x03, 0xfe, 0x2b, 0x0d, 0xff, 0x20, 0x1b, 0xfb, 0x07,
  0xef, 0x25, 0x0a, 0x07, 0x23, 0x1e, 0x0f, 0xf4, 0xf1, 0x15, 0xeb, 0x04,
  0x1b, 0x19, 0xf1, 0xed, 0xe4, 0x15, 0xfc, 0xf9, 0x1b, 0x07, 0x17, 0xda,
  0x09, 0x11, 0x19, 0xe0, 0xed, 0x0b, 0xdd, 0x07, 0x02, 0xd4, 0x1a, 0x0a,
  0xec, 0xf2, 0xf4, 0xf1, 0x1c, 0xeb, 0x16, 0x0f, 0xfb, 0x08, 0xfd, 0xfe,
  0x04, 0x00, 0x26, 0x26, 0x27, 0x14, 0x15, 0x0c, 0x16, 0x17, 0x2f, 0x24,
  0x06, 0x22, 0x03, 0xf7, 0x1e, 0x27, 0x0e, 0x13, 0x27, 0x2a, 0x06, 0x0e,
  0x0a, 0x16, 0x0f, 0x10, 0xf5, 0x23, 0xfd, 0x08, 0x00, 0x05, 0x19, 0x11,
  0x2c, 0x11, 0x15, 0xed, 0x17, 0x07, 0x0b, 0xf7, 0xff, 0x27, 0xf5, 0x21,
  0xe9, 0xc3, 0x18, 0x0e, 0xfe, 0xd5, 0x02, 0xf1, 0xe4, 0xd0, 0x0b, 0x00,
  0xfb, 0xe7, 0x07, 0xe8, 0x0e, 0xed, 0x12, 0x12, 0x09, 0x0d, 0x02, 0xe9,
  0x08, 0x04, 0x05, 0x27, 0xf8, 0x1b, 0xfc, 0xf8, 0xf0, 0x11, 0x26, 0x04,
  0x07, 0x07, 0x20, 0x06, 0xf8, 0x06, 0x02, 0x08, 0xfb, 0x10, 0xff, 0xf5,
  0xde, 0x07, 0x0a, 0xf1, 0x10, 0x03, 0x08, 0xf0, 0xee, 0x02, 0x07, 0xf0,
  0x02, 0xfd, 0xf7, 0xfe, 0xba, 0x8a, 0xf9, 0x05, 0xdf, 0xa0, 0xe7, 0xd9,
  0xd4, 0xbf, 0xf4, 0xf2, 0xdf, 0xe3, 0xee, 0xef, 0xff, 0xc4, 0x24, 0x1e,
  0xfd, 0xc9, 0xe7, 0xfb, 0xe8, 0xea, 0x15, 0x01, 0xde, 0xe9, 0x03, 0xfa,
  0x03, 0xf6, 0x21, 0x06, 0xee, 0xf5, 0x0b, 0x13, 0x01, 0x19, 0xf9, 0xec,
  0xec, 0xfb, 0xfe, 0x09, 0xe3, 0x02, 0x27, 0x04, 0xe3, 0xe5, 0x00, 0xec,
  0xf8, 0xeb, 0x05, 0xdd, 0xcf, 0xe1, 0xf3, 0x21, 0xb3, 0x81, 0x06, 0xec,
  0xf9, 0xab, 0x02, 0xd1, 0xdc, 0xb0, 0x08, 0x01, 0xf6, 0xc4, 0x14, 0xec,
  0x00, 0xaa, 0x03, 0x0e, 0xea, 0xc6, 0xe3, 0x07, 0x1a, 0xe6, 0x0a, 0x03,
  0x08, 0xee, 0x0a, 0x0f, 0x15, 0x04, 0x04, 0xfe, 0x10, 0x00, 0x0f, 0x22,
  0x0e, 0x15, 0x06, 0xe5, 0x04, 0x0f, 0xe8, 0x07, 0xe4, 0xf9, 0xe7, 0xd5,
  0xf9, 0xef, 0x00, 0xf3, 0xec, 0xee, 0xf7, 0xe0, 0xd6, 0xd5, 0x23, 0x0b,
  0xa7, 0x96, 0xe2, 0x03, 0x11, 0x98, 0x15, 0xcc, 0xf5, 0xcd, 0x09, 0xf1,
  0x00, 0xba, 0x05, 0xf2, 0xed, 0x9b, 0x1f, 0x1b, 0xf5, 0xc9, 0x11, 0x0e,
  0x2c, 0xcf, 0x0e, 0x1a, 0xda, 0xf9, 0x0f, 0x1e, 0x20, 0x0a, 0xf7, 0xf5,
  0xfb, 0x0f, 0xe4, 0x28, 0x0a, 0x1b, 0xed, 0xea, 0x1b, 0x0d, 0x10, 0x1c,
  0xe9, 0x12, 0xfd, 0x09, 0xf8, 0x03, 0xff, 0xfe, 0xe9, 0x0c, 0xfe, 0xde,
  0x01, 0xf9, 0x04, 0x0d, 0xc6, 0xb5, 0xea, 0xde, 0xf0, 0xb4, 0xf5, 0xe0,
  0xea, 0xac, 0xf7, 0x03, 0xe0, 0xd7, 0xf6, 0xdc, 0xdf, 0xbd, 0xf1, 0x1e,
  0xec, 0xba, 0x1d, 0x0f, 0x23, 0xe0, 0x17, 0xf7, 0xe5, 0x00, 0x07, 0x20,
  0x2e, 0x06, 0xe1, 0xed, 0x0e, 0x10, 0xed, 0x2f, 0x30, 0x23, 0xe7, 0xd5,
  0xe0, 0x1d, 0xf7, 0x34, 0xe4, 0x00, 0xdc, 0xd9, 0x01, 0xe4, 0xeb, 0xf0,
  0x07, 0xeb, 0xe4, 0xe9, 0xf8, 0xfa, 0xd8, 0x11, 0xb9, 0xbb, 0xeb, 0xdb,
  0xda, 0xcc, 0xdf, 0xc9, 0xe3, 0xac, 0x03, 0x08, 0xee, 0xca, 0xfd, 0xd2,
  0x16, 0x9a, 0xf5, 0x02, 0xf5, 0xd6, 0xf6, 0xf4, 0x39, 0xb1, 0x0c, 0x02,
  0xfc, 0xf6, 0x0f, 0x1c, 0x39, 0x07, 0xfa, 0xfb, 0xe6, 0x19, 0xfe, 0x4a,
  0x2e, 0x1c, 0xee, 0x01, 0xf3, 0x14, 0xe5, 0x3c, 0x0e, 0xea, 0x0b, 0xfc,
  0x0f, 0xe9, 0x0c, 0x0e, 0x27, 0xec, 0xe2, 0xe0, 0xd8, 0xf2, 0xf7, 0x14,
  0xd2, 0x05, 0x1d, 0x2f, 0x11, 0xf9, 0xf6, 0xb8, 0xd6, 0x03, 0x0c, 0x08,
  0x0c, 0x01, 0x10, 0xc2, 0xf3, 0x09, 0x10, 0xfd, 0xf6, 0x18, 0xfd, 0xf2,
  0x05, 0x11, 0x0d, 0xf3, 0xf9, 0x21, 0xec, 0x26, 0x1c, 0x03, 0xfb, 0xf6,
  0xec, 0x07, 0x03, 0x26, 0x02, 0xff, 0xf7, 0x0f, 0xf2, 0xfb, 0xf3, 0x09,
  0xe4, 0x03, 0x0c, 0x1e, 0x04, 0xf8, 0x02, 0xec, 0xf0, 0x03, 0x1b, 0x21,
  0xe8, 0xfc, 0x01, 0xf5, 0xce, 0x10, 0x13, 0x2f, 0x2a, 0xff, 0xf9, 0xb8,
  0xd8, 0x17, 0x11, 0xfd, 0xe9, 0x07, 0x23, 0xb6, 0xef, 0x18, 0x17, 0xf6,
  0x06, 0x18, 0x02, 0xec, 0x08, 0x1d, 0x07, 0xf5, 0xf9, 0x29, 0xf9, 0x14,
  0x10, 0xff, 0xe8, 0x07, 0xde, 0x0d, 0xe7, 0x18, 0x09, 0xf5, 0x07, 0x12,
  0x06, 0x00, 0xdd, 0x08, 0xd1, 0xfd, 0x1c, 0x17, 0x21, 0x03, 0xe2, 0xd1,
  0xf6, 0x05, 0x12, 0x16, 0xfb, 0x08, 0x27, 0xe1, 0xca, 0x02, 0x1e, 0x17,
  0x1e, 0x00, 0x0c, 0xa4, 0xc4, 0x15, 0x13, 0xff, 0xff, 0x07, 0x16, 0xae,
  0xe5, 0x1b, 0x09, 0xfb, 0xf1, 0x0f, 0xf4, 0xe3, 0x0b, 0x1c, 0x07, 0xe8,
  0xe9, 0x23, 0x17, 0x10, 0x11, 0xf5, 0x00, 0x08, 0x0b, 0x08, 0x09, 0x1e,
  0x0c, 0xec, 0x0a, 0x0a, 0x09, 0x07, 0xef, 0x06, 0xd8, 0xfe, 0x12, 0x21,
  0x13, 0x00, 0x21, 0xd3, 0x01, 0x01, 0x10, 0x0f, 0xf1, 0x09, 0xd8, 0xe0,
  0xbd, 0xf2, 0x1f, 0x1c, 0x08, 0xf8, 0xfd, 0xa1, 0xae, 0x17, 0x25, 0x03,
  0xfa, 0x0b, 0x02, 0xaa, 0xe8, 0x07, 0x0d, 0xf9, 0xeb, 0x0c, 0xfd, 0xd7,
  0x10, 0x0f, 0x02, 0xe7, 0xf0, 0x22, 0xf4, 0x24, 0x1a, 0xf3, 0x06, 0x04,
  0xdc, 0x0b, 0xf9, 0x23, 0x0b, 0xe0, 0x10, 0x28, 0xed, 0xf7, 0xfb, 0xfa,
  0xd9, 0xfa, 0x1e, 0x13, 0xfd, 0xf7, 0xfe, 0xd6, 0xf2, 0x02, 0x14, 0x20,
  0xdc, 0xff, 0xec, 0xe8, 0xc2, 0x04, 0x2a, 0x41, 0x15, 0xf4, 0xea, 0x98,
  0xc8, 0x0e, 0x1c, 0xfc, 0xff, 0x0c, 0xfb, 0xa7, 0xf5, 0x1e, 0x1e, 0x0d,
  0xe5, 0x1b, 0x04, 0xec, 0x1c, 0x21, 0x28, 0xfc, 0xef, 0x34, 0x13, 0x15,
  0x32, 0xf5, 0x0a, 0x00, 0xf1, 0x16, 0x01, 0x25, 0x1f, 0xf3, 0x1f, 0x17,
  0xfd, 0x0f, 0xec, 0x16, 0x01, 0x04, 0x18, 0x1f, 0xfa, 0xfa, 0xe3, 0xd0,
  0x05, 0x05, 0x1c, 0x3b, 0xee, 0x07, 0xec, 0xeb, 0xa9, 0x09, 0x12, 0x0d,
  0x18, 0xfa, 0x07, 0x97, 0xbe, 0x0f, 0x17, 0xf7, 0xeb, 0xfc, 0x1c, 0xa9,
  0xe5, 0x0c, 0x26, 0xe9, 0xe8, 0x0c, 0x07, 0xf5, 0x0b, 0x05, 0x15, 0xfc,
  0xf1, 0x2d, 0x06, 0x24, 0x21, 0xf6, 0xfc, 0xf6, 0xed, 0x23, 0x04, 0x2d,
  0x22, 0xe3, 0xf4, 0x11, 0xfd, 0x01, 0xf1, 0x17, 0xec, 0xf8, 0x0c, 0x34,
  0xfd, 0xeb, 0xe5, 0xe2, 0x02, 0xe4, 0x1c, 0x26, 0xfb, 0x00, 0xef, 0xe9,
  0x8e, 0xfc, 0x25, 0x28, 0x12, 0xe5, 0x12, 0xa8, 0xb0, 0x11, 0x11, 0xea,
  0xf2, 0xfc, 0x0b, 0x9e, 0xf3, 0x14, 0x24, 0x00, 0xf8, 0x27, 0xfc, 0x07,
  0x1b, 0x26, 0x0e, 0xff, 0xe8, 0x2a, 0x1e, 0x11, 0x1e, 0xf9, 0xf4, 0x0b,
  0xd4, 0x23, 0xfe, 0x2e, 0x1a, 0xea, 0xfc, 0x0c, 0xe4, 0xfb, 0x0b, 0x1d,
  0xe0, 0xea, 0x23, 0x07, 0x06, 0xf8, 0xfe, 0xcc, 0xef, 0xee, 0x37, 0x0d,
  0xe5, 0xfa, 0xff, 0xd4, 0x8b, 0x00, 0x28, 0x28, 0x0a, 0xe9, 0x03, 0x81,
  0xb8, 0x17, 0x05, 0x0b, 0xfb, 0x05, 0x08, 0xa0, 0xee, 0x24, 0x2d, 0xf2,
  0xe9, 0x24, 0xf8, 0xe7, 0x07, 0x1e, 0x13, 0xef, 0xf5, 0x38, 0xdd, 0x1a,
  0x12, 0x05, 0x09, 0xf6, 0xf9, 0x07, 0x15, 0x2a, 0x1b, 0xe8, 0x0c, 0x21,
  0x01, 0x0b, 0xf4, 0x20, 0xce, 0xe9, 0x14, 0x18, 0xe3, 0xed, 0x0a, 0xd3,
  0xe4, 0xfa, 0x34, 0x25, 0xea, 0x07, 0xf2, 0xd9, 0x9a, 0x05, 0x03, 0x17,
  0x1c, 0xed, 0xf8, 0x9a, 0xbc, 0x26, 0x06, 0xe8, 0x0f, 0xfa, 0x0e, 0xad,
  0xc0, 0x29, 0x03, 0x0a, 0xdc, 0x22, 0x26, 0xdc, 0x01, 0x21, 0x21, 0xfb,
  0xd7, 0x0e, 0xe8, 0x10, 0x16, 0xdc, 0x04, 0xfc, 0x05, 0x06, 0xe5, 0x1f,
  0x07, 0xcc, 0xeb, 0x02, 0x04, 0xf6, 0x14, 0x27, 0xb4, 0xcb, 0xf9, 0x20,
  0xf1, 0xde, 0xfc, 0xdb, 0xe3, 0xe1, 0x27, 0x05, 0xfb, 0xf6, 0x16, 0xd7,
  0x97, 0xf2, 0xf8, 0x34, 0x2b, 0xf4, 0xfc, 0x99, 0xc1, 0x0a, 0x04, 0x07,
  0x0e, 0x11, 0x16, 0xbb, 0xda, 0x2c, 0x22, 0xee, 0xed, 0x0d, 0x05, 0xec,
  0xef, 0x19, 0xfe, 0xdf, 0xe2, 0x05, 0xe5, 0x09, 0xe5, 0xcb, 0xd6, 0xee,
  0xd7, 0xef, 0xfc, 0xff, 0xd9, 0xcd, 0x14, 0x04, 0xe3, 0xd9, 0xf8, 0x0f,
  0xe3, 0xdc, 0x02, 0xf1, 0x0e, 0xd5, 0xf0, 0xf4, 0xb8, 0xe8, 0x1a, 0x15,
  0xdd, 0xd6, 0xea, 0xe5, 0x09, 0xc6, 0x19, 0x27, 0xf1, 0xe3, 0x13, 0x0a,
  0x13, 0xe6, 0x27, 0x2c, 0xf0, 0xfe, 0xfb, 0x1c, 0x0b, 0xfa, 0x10, 0x10,
  0x1f, 0x0d, 0x05, 0x15, 0xfa, 0x04, 0x15, 0x23, 0x05, 0x02, 0xf7, 0x18,
  0xf7, 0x08, 0x32, 0x16, 0x1b, 0x08, 0x10, 0xf9, 0xfd, 0x0b, 0x0e, 0x22,
  0x1a, 0x07, 0x03, 0x01, 0x1f, 0x21, 0x27, 0x17, 0x1f, 0x2a, 0x1a, 0x2c,
  0x1b, 0x1c, 0x0c, 0x0f, 0x1d, 0x23, 0x18, 0x3c, 0xe9, 0xac, 0x1b, 0x1f,
  0x02, 0xd4, 0x22, 0xfb, 0x08, 0xd9, 0x0d, 0x2a, 0xfd, 0xec, 0xe6, 0x09,
  0x03, 0xe3, 0x15, 0x18, 0x03, 0xf2, 0xf2, 0x17, 0x0d, 0xf1, 0x20, 0x18,
  0xee, 0xf7, 0xfc, 0x07, 0xfb, 0xff, 0x12, 0x21, 0x19, 0x06, 0xf4, 0xfc,
  0x09, 0x05, 0x07, 0x22, 0xf5, 0x06, 0xe6, 0xff, 0x0d, 0x13, 0x30, 0x21,
  0x24, 0x12, 0xfe, 0x28, 0x1c, 0x0f, 0x12, 0x13, 0x01, 0x09, 0x07, 0x31,
  0xdd, 0x97, 0x0e, 0x18, 0x01, 0xa7, 0x19, 0xe4, 0xe0, 0xb5, 0x1c, 0x1c,
  0xf5, 0xcb, 0xe7, 0xe7, 0xf5, 0xd0, 0x1a, 0x12, 0xf5, 0xe2, 0x16, 0x01,
  0x12, 0xd5, 0x0f, 0x24, 0xf2, 0xd9, 0xf4, 0x0d, 0x15, 0xf3, 0x30, 0x18,
  0x0d, 0xff, 0x0a, 0x0b, 0x25, 0x05, 0x13, 0xfe, 0x20, 0x09, 0x0c, 0x13,
  0x05, 0x12, 0x04, 0x05, 0x00, 0x06, 0x0b, 0x25, 0x20, 0xff, 0x1d, 0x03,
  0x08, 0x03, 0xfd, 0x30, 0xb4, 0x87, 0x06, 0xf3, 0xf5, 0xad, 0x01, 0xd8,
  0xe3, 0xb4, 0x12, 0x0d, 0xfd, 0xc2, 0x1a, 0xe4, 0xe2, 0xd6, 0x12, 0x16,
  0x19, 0xe2, 0x15, 0xfc, 0x20, 0xcc, 0x09, 0x10, 0xe5, 0xe0, 0xfb, 0x0a,
  0x34, 0xe6, 0x06, 0xfa, 0xf5, 0x04, 0xeb, 0x28, 0x2f, 0x06, 0x1f, 0x0e,
  0xf7, 0x0f, 0xf9, 0x23, 0x10, 0xff, 0xfc, 0x1a, 0x01, 0x07, 0x19, 0x37,
  0x0e, 0xf6, 0x07, 0xf0, 0xe1, 0xf4, 0xf3, 0x3d, 0xa7, 0x81, 0xf8, 0x03,
  0x03, 0xb2, 0xfe, 0xd4, 0xd8, 0xcc, 0x05, 0x2c, 0xfd, 0xc8, 0x1f, 0xfa,
  0xf7, 0xb0, 0xf8, 0x00, 0x0a, 0xda, 0xf5, 0xf6, 0x04, 0xcc, 0x1a, 0x04,
  0xdd, 0xc6, 0xef, 0x15, 0x1f, 0xe5, 0x10, 0x01, 0xe8, 0xe8, 0xe4, 0x25,
  0x35, 0x04, 0xeb, 0xff, 0xe6, 0x09, 0xf1, 0x22, 0x08, 0x0d, 0x08, 0x04,
  0x04, 0xf8, 0x16, 0x1d, 0xff, 0xfa, 0x06, 0xf0, 0x05, 0xf8, 0xe6, 0x39,
  0xa5, 0xa0, 0xf8, 0xf6, 0x08, 0x9c, 0xdc, 0xcb, 0xdb, 0xb3, 0x13, 0x1a,
  0x13, 0xc7, 0xe8, 0xec, 0xef, 0xdb, 0xee, 0xfa, 0xd2, 0xec, 0x11, 0xfc,
  0x21, 0xc5, 0xf4, 0xf8, 0xf5, 0xda, 0x16, 0x22, 0x3d, 0xe7, 0xf4, 0xeb,
  0xeb, 0xf9, 0x1b, 0x37, 0x31, 0x07, 0xd9, 0xe9, 0xe4, 0x10, 0xf2, 0x2d,
  0x29, 0xf8, 0xea, 0xef, 0xf0, 0xef, 0x04, 0x47, 0x1e, 0xf9, 0x01, 0xdc,
  0xe2, 0xe6, 0x0d, 0x4c, 0xa2, 0x9e, 0x15, 0x18, 0xf0, 0xad, 0xee, 0xc3,
  0xc4, 0xe5, 0x03, 0x2f, 0x14, 0xc5, 0xf3, 0xe2, 0x00, 0xf1, 0x00, 0x07,
  0x0d, 0xe1, 0xec, 0xef, 0x35, 0xd5, 0xf5, 0x14, 0xe5, 0xf5, 0x16, 0x23,
  0x35, 0xf0, 0x15, 0x05, 0xe0, 0x02, 0xfc, 0x28, 0x1a, 0x0a, 0xe9, 0xe4,
  0xf0, 0x05, 0x04, 0x28, 0x28, 0x02, 0xf3, 0x04, 0xf2, 0xff, 0xe8, 0x09,
  0x16, 0x0e, 0xd1, 0xef, 0xfd, 0x05, 0x10, 0x13, 0xc3, 0xc3, 0xeb, 0x05,
  0x10, 0xaf, 0x0a, 0xa9, 0xd9, 0xcd, 0xf2, 0xf6, 0xfb, 0xd5, 0x06, 0xc0,
  0xed, 0xd5, 0xf6, 0x04, 0xf7, 0xfe, 0x09, 0xe0, 0x23, 0xd0, 0xfc, 0xf3,
  0xec, 0xde, 0x19, 0x34, 0x33, 0xe9, 0xf4, 0xf7, 0xd0, 0xfc, 0x14, 0x27,
  0x34, 0x02, 0xe1, 0xe5, 0xef, 0x12, 0x0a, 0x27, 0x2f, 0xfe, 0xde, 0xe2,
  0xf0, 0xfc, 0xf8, 0x15, 0x22, 0x00, 0xd9, 0xdc, 0xff, 0xf9, 0xf6, 0x1c,
  0xb7, 0xb1, 0x07, 0xfd, 0x00, 0xc0, 0x03, 0xaf, 0xe1, 0xde, 0xfe, 0x00,
  0xea, 0xcb, 0xfb, 0xd1, 0x03, 0xdc, 0x0a, 0x09, 0xfd, 0xe3, 0x08, 0xde,
  0x3d, 0xbf, 0xea, 0x09, 0xd5, 0xe4, 0xfe, 0x0e, 0x52, 0xd0, 0x0a, 0xed,
  0xec, 0xeb, 0xfe, 0x33, 0x35, 0xf0, 0xfa, 0xf1, 0xe3, 0x05, 0x1d, 0x2f,
  0x32, 0xf2, 0xf1, 0xe1, 0xf7, 0xfd, 0xf9, 0x21, 0x0b, 0xe7, 0xe3, 0xdc,
  0xf5, 0xe3, 0x0a, 0x36, 0xb6, 0xc1, 0xe0, 0xe9, 0x17, 0xc2, 0xf0, 0xb8,
  0xbf, 0xd5, 0x05, 0x02, 0x1c, 0xe5, 0x07, 0xcf, 0xda, 0xe7, 0xf8, 0x06,
  0xf0, 0xee, 0xfa, 0x04, 0x12, 0xb6, 0xfe, 0xfe, 0xbd, 0xcf, 0x0c, 0x2b,
  0x47, 0xd2, 0xfa, 0xf1, 0xc7, 0xf7, 0xf3, 0x4b, 0x44, 0xdf, 0xd8, 0xdc,
  0xda, 0xfb, 0xec, 0x20, 0x40, 0xff, 0xf6, 0xeb, 0xda, 0xed, 0x0a, 0x2f,
  0x33, 0xf2, 0xe9, 0xf2, 0xdd, 0xe5, 0xf2, 0x41, 0xa6, 0xfc, 0xff, 0xff,
  0x04, 0x00, 0x00, 0x00, 0x20, 0x00, 0x00, 0x00, 0x60, 0xff, 0xff, 0xff,
  0x5b, 0xff, 0xff, 0xff, 0xb2, 0xfe, 0xff, 0xff, 0x2c, 0xff, 0xff, 0xff,
  0x1c, 0x00, 0x00, 0x00, 0x14, 0x00, 0x00, 0x00, 0x70, 0xff, 0xff, 0xff,
  0x9f, 0xff, 0xff, 0xff, 0xd2, 0xfc, 0xff, 0xff, 0x04, 0x00, 0x00, 0x00,
  0x40, 0x02, 0x00, 0x00, 0xfe, 0xfb, 0xf0, 0xe2, 0x06, 0xed, 0x03, 0xe5,
  0xfd, 0xfe, 0x01, 0xfd, 0xfc, 0xfe, 0x06, 0x00, 0x01, 0x07, 0x00, 0xf6,
  0x02, 0xfe, 0x12, 0xf7, 0xbb, 0xae, 0xa3, 0xb4, 0x0b, 0x11, 0x06, 0xb2,
  0xed, 0xe3, 0xe1, 0xe9, 0xe3, 0xf1, 0x1b, 0xec, 0xf9, 0xee, 0x04, 0xe2,
  0xfa, 0xff, 0x0c, 0xe6, 0xa4, 0x8c, 0x81, 0x9e, 0x09, 0x0d, 0x11, 0x97,
  0xda, 0xea, 0xc8, 0xea, 0xc6, 0xfa, 0x34, 0xf1, 0x00, 0xf6, 0x01, 0xef,
  0xf4, 0x04, 0x19, 0xec, 0x6a, 0xe9, 0xe6, 0x26, 0x59, 0x50, 0x3e, 0x11,
  0x39, 0xe6, 0xf8, 0x0f, 0x23, 0x22, 0x32, 0xec, 0x1e, 0xff, 0x04, 0xfb,
  0x09, 0x10, 0x14, 0xee, 0xfc, 0xfe, 0x01, 0x03, 0xfb, 0xfe, 0xee, 0x04,
  0x0c, 0x17, 0x06, 0x00, 0x04, 0x07, 0xfa, 0x01, 0xfd, 0x01, 0xfb, 0x04,
  0xf5, 0x05, 0xf2, 0xff, 0x13, 0x13, 0x1a, 0x0d, 0xfb, 0x07, 0xfd, 0x10,
  0x25, 0x2e, 0x15, 0x2e, 0x2c, 0x16, 0xfd, 0x29, 0xf4, 0x01, 0xfc, 0xf2,
  0xf1, 0xea, 0xf8, 0xf9, 0x0f, 0x18, 0x1f, 0x0c, 0xfe, 0x08, 0x18, 0x0f,
  0x1b, 0x25, 0x1c, 0x2c, 0x20, 0x18, 0x16, 0x2e, 0xfc, 0x06, 0xfb, 0x02,
  0xf3, 0xea, 0xf8, 0x06, 0xfe, 0x00, 0x02, 0xfe, 0xff, 0x09, 0x0e, 0xff,
  0xff, 0x0e, 0x13, 0x08, 0xfd, 0xf9, 0x07, 0x12, 0xeb, 0xf7, 0x04, 0xe6,
  0xee, 0xf0, 0xf0, 0xfa, 0xfe, 0xfd, 0xfc, 0xf7, 0x02, 0xee, 0x16, 0xf5,
  0x17, 0xf3, 0x03, 0x02, 0x21, 0xff, 0x08, 0xff, 0xfd, 0x02, 0xfd, 0xfb,
  0x01, 0x00, 0x03, 0xf9, 0x0a, 0x0c, 0x0b, 0x0a, 0xf9, 0x00, 0x04, 0x09,
  0x32, 0x1a, 0xf9, 0x32, 0x3a, 0x43, 0xfc, 0x45, 0xfe, 0xf6, 0xfd, 0xf4,
  0x0a, 0x05, 0x02, 0xf8, 0x16, 0x15, 0x17, 0x0e, 0xf3, 0xfa, 0xf2, 0x14,
  0x28, 0x1c, 0x07, 0x30, 0x36, 0x38, 0xde, 0x45, 0xfd, 0xef, 0xf8, 0xfa,
  0x0a, 0x02, 0xf6, 0xff, 0xdc, 0x03, 0x04, 0xe9, 0xe2, 0xed, 0xe3, 0xf7,
  0xf8, 0x15, 0x16, 0x12, 0x16, 0x02, 0xe8, 0x2d, 0x00, 0xfe, 0xed, 0xf8,
  0x04, 0x05, 0xf5, 0xfc, 0x03, 0x04, 0x0b, 0x12, 0x05, 0x12, 0x0b, 0x10,
  0xf4, 0xf7, 0x02, 0xfd, 0xfb, 0xfe, 0xff, 0xfc, 0xff, 0x02, 0xfd, 0xfe,
  0x00, 0x03, 0x04, 0xfd, 0x1b, 0x1a, 0x21, 0x19, 0xfe, 0x0f, 0x0b, 0x1c,
  0xd8, 0xdf, 0xfe, 0xd2, 0xe5, 0xe5, 0xdd, 0xd8, 0xf5, 0xf7, 0xfc, 0xef,
  0x00, 0xfa, 0xff, 0xf0, 0x1f, 0x25, 0x29, 0x18, 0xfd, 0x0b, 0x10, 0x1e,
  0xe1, 0xe2, 0xf6, 0xd6, 0xfe, 0xf4, 0xd1, 0xda, 0xf6, 0xec, 0xf5, 0xe8,
  0xfe, 0xf9, 0xf4, 0xe7, 0xf3, 0x12, 0x0e, 0xff, 0xf5, 0xf4, 0xfa, 0x04,
  0xea, 0xf0, 0xfb, 0xf8, 0xf5, 0xf3, 0xe4, 0x02, 0xf4, 0xf0, 0xf0, 0xe1,
  0xed, 0x00, 0xee, 0xea, 0xfb, 0xfa, 0xfd, 0xfd, 0xfa, 0xfa, 0xf4, 0xfd,
  0xfd, 0x0b, 0xfe, 0x01, 0x00, 0xff, 0xf8, 0x01, 0xff, 0x06, 0xfb, 0x0f,
  0xf8, 0x14, 0xf1, 0x08, 0x04, 0x09, 0x0a, 0x06, 0xf0, 0xee, 0xf8, 0x06,
  0x0c, 0x1d, 0x01, 0x09, 0xf1, 0xf5, 0x28, 0xf9, 0x1a, 0x26, 0x05, 0x34,
  0x13, 0x16, 0x06, 0x36, 0x08, 0x0e, 0x05, 0x09, 0xe2, 0xd9, 0xf6, 0x06,
  0x13, 0x16, 0x12, 0x0e, 0xd7, 0xf1, 0x47, 0xf0, 0x26, 0x2f, 0x19, 0x3f,
  0x19, 0x12, 0x19, 0x40, 0xdd, 0x06, 0xfb, 0xf1, 0xe1, 0xdd, 0xec, 0xf4,
  0x18, 0x06, 0x10, 0xe9, 0xef, 0x0a, 0x25, 0xde, 0x0d, 0x22, 0x3d, 0x2a,
  0x0c, 0xf3, 0x19, 0x3b, 0x02, 0x04, 0x0d, 0x1a, 0x03, 0x17, 0xf9, 0x14,
  0xf2, 0xff, 0x06, 0xff, 0xf2, 0x01, 0xfc, 0xfd, 0xfe, 0x01, 0xfc, 0x01,
  0xfe, 0x03, 0x01, 0xfd, 0x1d, 0x1b, 0x23, 0x1b, 0xfd, 0x0a, 0xf0, 0x1f,
  0xd8, 0xe8, 0x08, 0xcc, 0xe6, 0xd2, 0xd9, 0xd6, 0xfc, 0x00, 0xfb, 0x01,
  0x07, 0xfe, 0xff, 0x05, 0x20, 0x25, 0x29, 0x1d, 0xff, 0xfc, 0xe7, 0x22,
  0xdb, 0xde, 0x01, 0xd0, 0xfe, 0xe0, 0xc2, 0xd2, 0xfb, 0xf0, 0xf3, 0xf8,
  0x04, 0xfe, 0xfb, 0xf6, 0xf1, 0x11, 0x0a, 0x06, 0xf2, 0xdc, 0xe8, 0x0d,
  0xdf, 0xea, 0xef, 0xf0, 0xf1, 0xe3, 0xd4, 0xf9, 0x0a, 0xf3, 0xec, 0xfa,
  0x0f, 0x0e, 0x02, 0xfe, 0x1e, 0xff, 0xff, 0xff, 0x04, 0x00, 0x00, 0x00,
  0x18, 0x00, 0x00, 0x00, 0xa4, 0xff, 0xff, 0xff, 0xbc, 0xfc, 0xff, 0xff,
  0x95, 0x03, 0x00, 0x00, 0x1a, 0x02, 0x00, 0x00, 0x1e, 0xfe, 0xff, 0xff,
  0xd3, 0xff, 0xff, 0xff, 0x42, 0xff, 0xff, 0xff, 0x04, 0x00, 0x00, 0x00,
  0x08, 0x00, 0x00, 0x00, 0xff, 0xff, 0xff, 0xff, 0x60, 0x00, 0x00, 0x00,
  0x56, 0xff, 0xff, 0xff, 0x04, 0x00, 0x00, 0x00, 0x10, 0x00, 0x00, 0x00,
  0xff, 0xff, 0xff, 0xff, 0x31, 0x00, 0x00, 0x00, 0x28, 0x00, 0x00, 0x00,
  0x01, 0x00, 0x00, 0x00, 0xc0, 0xf7, 0xff, 0xff, 0xc4, 0xf7, 0xff, 0xff,
  0x0f, 0x00, 0x00, 0x00, 0x4d, 0x4c, 0x49, 0x52, 0x20, 0x43, 0x6f, 0x6e,
  0x76, 0x65, 0x72, 0x74, 0x65, 0x64, 0x2e, 0x00, 0x01, 0x00, 0x00, 0x00,
  0x14, 0x00, 0x00, 0x00, 0x00, 0x00, 0x0e, 0x00, 0x18, 0x00, 0x14, 0x00,
  0x10, 0x00, 0x0c, 0x00, 0x08, 0x00, 0x04, 0x00, 0x0e, 0x00, 0x00, 0x00,
  0x14, 0x00, 0x00, 0x00, 0x1c, 0x00, 0x00, 0x00, 0x88, 0x01, 0x00, 0x00,
  0x8c, 0x01, 0x00, 0x00, 0x90, 0x01, 0x00, 0x00, 0x04, 0x00, 0x00, 0x00,
  0x6d, 0x61, 0x69, 0x6e, 0x00, 0x00, 0x00, 0x00, 0x06, 0x00, 0x00, 0x00,
  0x4c, 0x01, 0x00, 0x00, 0xf0, 0x00, 0x00, 0x00, 0x9c, 0x00, 0x00, 0x00,
  0x78, 0x00, 0x00, 0x00, 0x40, 0x00, 0x00, 0x00, 0x04, 0x00, 0x00, 0x00,
  0x32, 0xff, 0xff, 0xff, 0x1c, 0x00, 0x00, 0x00, 0x00, 0x00, 0x00, 0x09,
  0x1c, 0x00, 0x00, 0x00, 0x20, 0x00, 0x00, 0x00, 0x03, 0x00, 0x00, 0x00,
  0x00, 0x00, 0x06, 0x00, 0x08, 0x00, 0x04, 0x00, 0x06, 0x00, 0x00, 0x00,
  0x00, 0x00, 0x80, 0x3f, 0x01, 0x00, 0x00, 0x00, 0x0e, 0x00, 0x00, 0x00,
  0x01, 0x00, 0x00, 0x00, 0x0d, 0x00, 0x00, 0x00, 0x6a, 0xff, 0xff, 0xff,
  0x14, 0x00, 0x00, 0x00, 0x00, 0x00, 0x00, 0x08, 0x10, 0x00, 0x00, 0x00,
  0x14, 0x00, 0x00, 0x00, 0x02, 0x00, 0x00, 0x00, 0x84, 0xf8, 0xff, 0xff,
  0x01, 0x00, 0x00, 0x00, 0x0d, 0x00, 0x00, 0x00, 0x03, 0x00, 0x00, 0x00,
  0x0c, 0x00, 0x00, 0x00, 0x04, 0x00, 0x00, 0x00, 0x03, 0x00, 0x00, 0x00,
  0x42, 0xff, 0xff, 0xff, 0x08, 0x00, 0x00, 0x00, 0x0c, 0x00, 0x00, 0x00,
  0x01, 0x00, 0x00, 0x00, 0x0c, 0x00, 0x00, 0x00, 0x02, 0x00, 0x00, 0x00,
  0x0b, 0x00, 0x00, 0x00, 0x02, 0x00, 0x00, 0x00, 0xbe, 0xff, 0xff, 0xff,
  0x14, 0x00, 0x00, 0x00, 0x00, 0x00, 0x00, 0x01, 0x1c, 0x00, 0x00, 0x00,
  0x20, 0x00, 0x00, 0x00, 0x01, 0x00, 0x00, 0x00, 0xb0, 0xff, 0xff, 0xff,
  0x00, 0x00, 0x00, 0x01, 0x08, 0x00, 0x00, 0x00, 0x08, 0x00, 0x00, 0x00,
  0x01, 0x00, 0x00, 0x00, 0x0b, 0x00, 0x00, 0x00, 0x03, 0x00, 0x00, 0x00,
  0x0a, 0x00, 0x00, 0x00, 0x06, 0x00, 0x00, 0x00, 0x05, 0x00, 0x00, 0x00,
  0x00, 0x00, 0x0e, 0x00, 0x18, 0x00, 0x14, 0x00, 0x10, 0x00, 0x0c, 0x00,
  0x0b, 0x00, 0x04, 0x00, 0x0e, 0x00, 0x00, 0x00, 0x20, 0x00, 0x00, 0x00,
  0x00, 0x00, 0x00, 0x01, 0x28, 0x00, 0x00, 0x00, 0x2c, 0x00, 0x00, 0x00,
  0x01, 0x00, 0x00, 0x00, 0x0c, 0x00, 0x10, 0x00, 0x00, 0x00, 0x0c, 0x00,
  0x08, 0x00, 0x07, 0x00, 0x0c, 0x00, 0x00, 0x00, 0x00, 0x00, 0x00, 0x01,
  0x02, 0x00, 0x00, 0x00, 0x02, 0x00, 0x00, 0x00, 0x01, 0x00, 0x00, 0x00,
  0x0a, 0x00, 0x00, 0x00, 0x03, 0x00, 0x00, 0x00, 0x09, 0x00, 0x00, 0x00,
  0x08, 0x00, 0x00, 0x00, 0x07, 0x00, 0x00, 0x00, 0x00, 0x00, 0x0a, 0x00,
  0x0c, 0x00, 0x00, 0x00, 0x08, 0x00, 0x04, 0x00, 0x0a, 0x00, 0x00, 0x00,
  0x08, 0x00, 0x00, 0x00, 0x0c, 0x00, 0x00, 0x00, 0x01, 0x00, 0x00, 0x00,
  0x09, 0x00, 0x00, 0x00, 0x02, 0x00, 0x00, 0x00, 0x00, 0x00, 0x00, 0x00,
  0x01, 0x00, 0x00, 0x00, 0x01, 0x00, 0x00, 0x00, 0x0e, 0x00, 0x00, 0x00,
  0x01, 0x00, 0x00, 0x00, 0x00, 0x00, 0x00, 0x00, 0x0f, 0x00, 0x00, 0x00,
  0xa0, 0x06, 0x00, 0x00, 0x44, 0x06, 0x00, 0x00, 0x04, 0x06, 0x00, 0x00,
  0xa8, 0x05, 0x00, 0x00, 0x4c, 0x05, 0x00, 0x00, 0xa0, 0x04, 0x00, 0x00,
  0xe4, 0x03, 0x00, 0x00, 0x38, 0x03, 0x00, 0x00, 0x84, 0x02, 0x00, 0x00,
  0x20, 0x02, 0x00, 0x00, 0xa4, 0x01, 0x00, 0x00, 0x28, 0x01, 0x00, 0x00,
  0xcc, 0x00, 0x00, 0x00, 0x68, 0x00, 0x00, 0x00, 0x04, 0x00, 0x00, 0x00,
  0xb2, 0xf9, 0xff, 0xff, 0x00, 0x00, 0x00, 0x01, 0x14, 0x00, 0x00, 0x00,
  0x34, 0x00, 0x00, 0x00, 0x0f, 0x00, 0x00, 0x00, 0x00, 0x00, 0x00, 0x09,
  0x3c, 0x00, 0x00, 0x00, 0x9c, 0xf9, 0xff, 0xff, 0x08, 0x00, 0x00, 0x00,
  0x14, 0x00, 0x00, 0x00, 0x01, 0x00, 0x00, 0x00, 0x80, 0xff, 0xff, 0xff,
  0xff, 0xff, 0xff, 0xff, 0x00, 0x00, 0x00, 0x00, 0x01, 0x00, 0x00, 0x00,
  0x00, 0x00, 0x80, 0x3b, 0x0e, 0x00, 0x00, 0x00, 0x6c, 0x61, 0x62, 0x65,
  0x6c, 0x73, 0x5f, 0x73, 0x6f, 0x66, 0x74, 0x6d, 0x61, 0x78, 0x00, 0x00,
  0x02, 0x00, 0x00, 0x00, 0x01, 0x00, 0x00, 0x00, 0x06, 0x00, 0x00, 0x00,
  0x12, 0xfa, 0xff, 0xff, 0x00, 0x00, 0x00, 0x01, 0x14, 0x00, 0x00, 0x00,
  0x34, 0x00, 0x00, 0x00, 0x0e, 0x00, 0x00, 0x00, 0x00, 0x00, 0x00, 0x09,
  0x3c, 0x00, 0x00, 0x00, 0xfc, 0xf9, 0xff, 0xff, 0x08, 0x00, 0x00, 0x00,
  0x14, 0x00, 0x00, 0x00, 0x01, 0x00, 0x00, 0x00, 0x23, 0x00, 0x00, 0x00,
  0x00, 0x00, 0x00, 0x00, 0x00, 0x00, 0x00, 0x00, 0x01, 0x00, 0x00, 0x00,
  0x40, 0x9e, 0xac, 0x3d, 0x0c, 0x00, 0x00, 0x00, 0x4d, 0x61, 0x74, 0x4d,
  0x75, 0x6c, 0x3b, 0x61, 0x64, 0x64, 0x5f, 0x32, 0x00, 0x00, 0x00, 0x00,
  0x02, 0x00, 0x00, 0x00, 0x01, 0x00, 0x00, 0x00, 0x06, 0x00, 0x00, 0x00,
  0x72, 0xfa, 0xff, 0xff, 0x00, 0x00, 0x00, 0x01, 0x14, 0x00, 0x00, 0x00,
  0x30, 0x00, 0x00, 0x00, 0x0d, 0x00, 0x00, 0x00, 0x00, 0x00, 0x00, 0x09,
  0x34, 0x00, 0x00, 0x00, 0x5c, 0xfa, 0xff, 0xff, 0x08, 0x00, 0x00, 0x00,
  0x10, 0x00, 0x00, 0x00, 0x01, 0x00, 0x00, 0x00, 0x80, 0xff, 0xff, 0xff,
  0xff, 0xff, 0xff, 0xff, 0x01, 0x00, 0x00, 0x00, 0x1d, 0xf8, 0xbd, 0x3d,
  0x09, 0x00, 0x00, 0x00, 0x52, 0x65, 0x73, 0x68, 0x61, 0x70, 0x65, 0x5f,
  0x33, 0x00, 0x00, 0x00, 0x02, 0x00, 0x00, 0x00, 0x01, 0x00, 0x00, 0x00,
  0x60, 0x00, 0x00, 0x00, 0xca, 0xfa, 0xff, 0xff, 0x00, 0x00, 0x00, 0x01,
  0x14, 0x00, 0x00, 0x00, 0x30, 0x00, 0x00, 0x00, 0x0c, 0x00, 0x00, 0x00,
  0x00, 0x00, 0x00, 0x09, 0x4c, 0x00, 0x00, 0x00, 0xb4, 0xfa, 0xff, 0xff,
  0x08, 0x00, 0x00, 0x00, 0x10, 0x00, 0x00, 0x00, 0x01, 0x00, 0x00, 0x00,
  0x80, 0xff, 0xff, 0xff, 0xff, 0xff, 0xff, 0xff, 0x01, 0x00, 0x00, 0x00,
  0x1d, 0xf8, 0xbd, 0x3d, 0x21, 0x00, 0x00, 0x00, 0x52, 0x65, 0x6c, 0x75,
  0x5f, 0x31, 0x3b, 0x61, 0x64, 0x64, 0x5f, 0x31, 0x3b, 0x43, 0x6f, 0x6e,
  0x76, 0x32, 0x44, 0x5f, 0x31, 0x3b, 0x73, 0x65, 0x63, 0x6f, 0x6e, 0x64,
  0x5f, 0x62, 0x69, 0x61, 0x73, 0x00, 0x00, 0x00, 0x04, 0x00, 0x00, 0x00,
  0x01, 0x00, 0x00, 0x00, 0x04, 0x00, 0x00, 0x00, 0x03, 0x00, 0x00, 0x00,
  0x08, 0x00, 0x00, 0x00, 0x42, 0xfb, 0xff, 0xff, 0x00, 0x00, 0x00, 0x01,
  0x14, 0x00, 0x00, 0x00, 0x30, 0x00, 0x00, 0x00, 0x0b, 0x00, 0x00, 0x00,
  0x00, 0x00, 0x00, 0x09, 0x4c, 0x00, 0x00, 0x00, 0x2c, 0xfb, 0xff, 0xff,
  0x08, 0x00, 0x00, 0x00, 0x10, 0x00, 0x00, 0x00, 0x01, 0x00, 0x00, 0x00,
  0x80, 0xff, 0xff, 0xff, 0xff, 0xff, 0xff, 0xff, 0x01, 0x00, 0x00, 0x00,
  0x8a, 0xcd, 0xf7, 0x3d, 0x23, 0x00, 0x00, 0x00, 0x52, 0x65, 0x6c, 0x75,
  0x3b, 0x61, 0x64, 0x64, 0x3b, 0x43, 0x6f, 0x6e, 0x76, 0x32, 0x44, 0x5f,
  0x31, 0x3b, 0x43, 0x6f, 0x6e, 0x76, 0x32, 0x44, 0x3b, 0x66, 0x69, 0x72,
  0x73, 0x74, 0x5f, 0x62, 0x69, 0x61, 0x73, 0x00, 0x04, 0x00, 0x00, 0x00,
  0x01, 0x00, 0x00, 0x00, 0x19, 0x00, 0x00, 0x00, 0x14, 0x00, 0x00, 0x00,
  0x08, 0x00, 0x00, 0x00, 0xba, 0xfb, 0xff, 0xff, 0x00, 0x00, 0x00, 0x01,
  0x14, 0x00, 0x00, 0x00, 0x30, 0x00, 0x00, 0x00, 0x0a, 0x00, 0x00, 0x00,
  0x00, 0x00, 0x00, 0x09, 0x34, 0x00, 0x00, 0x00, 0xa4, 0xfb, 0xff, 0xff,
  0x08, 0x00, 0x00, 0x00, 0x10, 0x00, 0x00, 0x00, 0x01, 0x00, 0x00, 0x00,
  0x80, 0xff, 0xff, 0xff, 0xff, 0xff, 0xff, 0xff, 0x01, 0x00, 0x00, 0x00,
  0x00, 0x00, 0xd0, 0x3d, 0x09, 0x00, 0x00, 0x00, 0x52, 0x65, 0x73, 0x68,
  0x61, 0x70, 0x65, 0x5f, 0x32, 0x00, 0x00, 0x00, 0x04, 0x00, 0x00, 0x00,
  0x01, 0x00, 0x00, 0x00, 0x31, 0x00, 0x00, 0x00, 0x28, 0x00, 0x00, 0x00,
  0x01, 0x00, 0x00, 0x00, 0x1a, 0xfc, 0xff, 0xff, 0x00, 0x00, 0x00, 0x01,
  0x14, 0x00, 0x00, 0x00, 0x84, 0x00, 0x00, 0x00, 0x09, 0x00, 0x00, 0x00,
  0x00, 0x00, 0x00, 0x09, 0x84, 0x00, 0x00, 0x00, 0x04, 0xfc, 0xff, 0xff,
  0x08, 0x00, 0x00, 0x00, 0x48, 0x00, 0x00, 0x00, 0x08, 0x00, 0x00, 0x00,
  0x00, 0x00, 0x00, 0x00, 0x00, 0x00, 0x00, 0x00, 0x00, 0x00, 0x00, 0x00,
  0x00, 0x00, 0x00, 0x00, 0x00, 0x00, 0x00, 0x00, 0x00, 0x00, 0x00, 0x00,
  0x00, 0x00, 0x00, 0x00, 0x00, 0x00, 0x00, 0x00, 0x00, 0x00, 0x00, 0x00,
  0x00, 0x00, 0x00, 0x00, 0x00, 0x00, 0x00, 0x00, 0x00, 0x00, 0x00, 0x00,
  0x00, 0x00, 0x00, 0x00, 0x00, 0x00, 0x00, 0x00, 0x00, 0x00, 0x00, 0x00,
  0x00, 0x00, 0x00, 0x00, 0x08, 0x00, 0x00, 0x00, 0x6f, 0xda, 0x98, 0x3a,
  0x69, 0x15, 0x6a, 0x3a, 0xcd, 0x1f, 0xa9, 0x39, 0xa1, 0xb3, 0xbc, 0x39,
  0x95, 0x31, 0xcf, 0x39, 0x4d, 0xc4, 0x2d, 0x3a, 0x4b, 0x7a, 0x18, 0x39,
  0xc2, 0x58, 0x8f, 0x3a, 0x06, 0x00, 0x00, 0x00, 0x43, 0x6f, 0x6e, 0x76,
  0x32, 0x44, 0x00, 0x00, 0x04, 0x00, 0x00, 0x00, 0x08, 0x00, 0x00, 0x00,
  0x0a, 0x00, 0x00, 0x00, 0x08, 0x00, 0x00, 0x00, 0x01, 0x00, 0x00, 0x00,
  0xca, 0xfc, 0xff, 0xff, 0x00, 0x00, 0x00, 0x01, 0x14, 0x00, 0x00, 0x00,
  0x84, 0x00, 0x00, 0x00, 0x08, 0x00, 0x00, 0x00, 0x00, 0x00, 0x00, 0x02,
  0x88, 0x00, 0x00, 0x00, 0xb4, 0xfc, 0xff, 0xff, 0x08, 0x00, 0x00, 0x00,
  0x48, 0x00, 0x00, 0x00, 0x08, 0x00, 0x00, 0x00, 0x00, 0x00, 0x00, 0x00,
  0x00, 0x00, 0x00, 0x00, 0x00, 0x00, 0x00, 0x00, 0x00, 0x00, 0x00, 0x00,
  0x00, 0x00, 0x00, 0x00, 0x00, 0x00, 0x00, 0x00, 0x00, 0x00, 0x00, 0x00,
  0x00, 0x00, 0x00, 0x00, 0x00, 0x00, 0x00, 0x00, 0x00, 0x00, 0x00, 0x00,
  0x00, 0x00, 0x00, 0x00, 0x00, 0x00, 0x00, 0x00, 0x00, 0x00, 0x00, 0x00,
  0x00, 0x00, 0x00, 0x00, 0x00, 0x00, 0x00, 0x00, 0x00, 0x00, 0x00, 0x00,
  0x08, 0x00, 0x00, 0x00, 0xf4, 0x62, 0xf8, 0x38, 0x65, 0x31, 0xbe, 0x38,
  0xd7, 0x69, 0x09, 0x38, 0xf3, 0x51, 0x19, 0x38, 0x49, 0x58, 0x28, 0x38,
  0x7f, 0x2f, 0x8d, 0x38, 0xba, 0xc6, 0x77, 0x37, 0x3b, 0xf0, 0xe8, 0x38,
  0x0a, 0x00, 0x00, 0x00, 0x66, 0x69, 0x72, 0x73, 0x74, 0x5f, 0x62, 0x69,
  0x61, 0x73, 0x00, 0x00, 0x01, 0x00, 0x00, 0x00, 0x08, 0x00, 0x00, 0x00,
  0x72, 0xfd, 0xff, 0xff, 0x00, 0x00, 0x00, 0x01, 0x14, 0x00, 0x00, 0x00,
  0x88, 0x00, 0x00, 0x00, 0x07, 0x00, 0x00, 0x00, 0x00, 0x00, 0x00, 0x09,
  0x8c, 0x00, 0x00, 0x00, 0x5c, 0xfd, 0xff, 0xff, 0x08, 0x00, 0x00, 0x00,
  0x4c, 0x00, 0x00, 0x00, 0x08, 0x00, 0x00, 0x00, 0x00, 0x00, 0x00, 0x00,
  0x00, 0x00, 0x00, 0x00, 0x00, 0x00, 0x00, 0x00, 0x00, 0x00, 0x00, 0x00,
  0x00, 0x00, 0x00, 0x00, 0x00, 0x00, 0x00, 0x00, 0x00, 0x00, 0x00, 0x00,
  0x00, 0x00, 0x00, 0x00, 0x00, 0x00, 0x00, 0x00, 0x00, 0x00, 0x00, 0x00,
  0x00, 0x00, 0x00, 0x00, 0x00, 0x00, 0x00, 0x00, 0x00, 0x00, 0x00, 0x00,
  0x00, 0x00, 0x00, 0x00, 0x00, 0x00, 0x00, 0x00, 0x00, 0x00, 0x00, 0x00,
  0x00, 0x00, 0x00, 0x00, 0x08, 0x00, 0x00, 0x00, 0x34, 0xbb, 0x04, 0x3a,
  0x7c, 0xda, 0xee, 0x39, 0x2e, 0x94, 0xf0, 0x39, 0x6e, 0xc2, 0xe2, 0x39,
  0x63, 0xb1, 0x01, 0x3a, 0xb2, 0xd9, 0xfb, 0x39, 0xb1, 0x8f, 0xfb, 0x39,
  0x18, 0xb0, 0x0b, 0x3a, 0x08, 0x00, 0x00, 0x00, 0x43, 0x6f, 0x6e, 0x76,
  0x32, 0x44, 0x5f, 0x31, 0x00, 0x00, 0x00, 0x00, 0x04, 0x00, 0x00, 0x00,
  0x08, 0x00, 0x00, 0x00, 0x0a, 0x00, 0x00, 0x00, 0x08, 0x00, 0x00, 0x00,
  0x08, 0x00, 0x00, 0x00, 0x2a, 0xfe, 0xff, 0xff, 0x00, 0x00, 0x00, 0x01,
  0x14, 0x00, 0x00, 0x00, 0x84, 0x00, 0x00, 0x00, 0x06, 0x00, 0x00, 0x00,
  0x00, 0x00, 0x00, 0x02, 0x88, 0x00, 0x00, 0x00, 0x14, 0xfe, 0xff, 0xff,
  0x08, 0x00, 0x00, 0x00, 0x48, 0x00, 0x00, 0x00, 0x08, 0x00, 0x00, 0x00,
  0x00, 0x00, 0x00, 0x00, 0x00, 0x00, 0x00, 0x00, 0x00, 0x00, 0x00, 0x00,
  0x00, 0x00, 0x00, 0x00, 0x00, 0x00, 0x00, 0x00, 0x00, 0x00, 0x00, 0x00,
  0x00, 0x00, 0x00, 0x00, 0x00, 0x00, 0x00, 0x00, 0x00, 0x00, 0x00, 0x00,
  0x00, 0x00, 0x00, 0x00, 0x00, 0x00, 0x00, 0x00, 0x00, 0x00, 0x00, 0x00,
  0x00, 0x00, 0x00, 0x00, 0x00, 0x00, 0x00, 0x00, 0x00, 0x00, 0x00, 0x00,
  0x00, 0x00, 0x00, 0x00, 0x08, 0x00, 0x00, 0x00, 0x31, 0x7b, 0x80, 0x38,
  0x93, 0x34, 0x67, 0x38, 0x21, 0xe0, 0x68, 0x38, 0xa8, 0x7f, 0x5b, 0x38,
  0x8f, 0x14, 0x7b, 0x38, 0x40, 0xc9, 0x73, 0x38, 0x9d, 0x81, 0x73, 0x38,
  0x0e, 0x37, 0x87, 0x38, 0x0b, 0x00, 0x00, 0x00, 0x73, 0x65, 0x63, 0x6f,
  0x6e, 0x64, 0x5f, 0x62, 0x69, 0x61, 0x73, 0x00, 0x01, 0x00, 0x00, 0x00,
  0x08, 0x00, 0x00, 0x00, 0xd2, 0xfe, 0xff, 0xff, 0x00, 0x00, 0x00, 0x01,
  0x14, 0x00, 0x00, 0x00, 0x34, 0x00, 0x00, 0x00, 0x05, 0x00, 0x00, 0x00,
  0x00, 0x00, 0x00, 0x09, 0x34, 0x00, 0x00, 0x00, 0xbc, 0xfe, 0xff, 0xff,
  0x08, 0x00, 0x00, 0x00, 0x14, 0x00, 0x00, 0x00, 0x01, 0x00, 0x00, 0x00,
  0x00, 0x00, 0x00, 0x00, 0x00, 0x00, 0x00, 0x00, 0x00, 0x00, 0x00, 0x00,
  0x01, 0x00, 0x00, 0x00, 0x92, 0x95, 0xcc, 0x3a, 0x06, 0x00, 0x00, 0x00,
  0x4d, 0x61, 0x74, 0x4d, 0x75, 0x6c, 0x00, 0x00, 0x02, 0x00, 0x00, 0x00,
  0x06, 0x00, 0x00, 0x00, 0x60, 0x00, 0x00, 0x00, 0x2a, 0xff, 0xff, 0xff,
  0x00, 0x00, 0x00, 0x01, 0x14, 0x00, 0x00, 0x00, 0x30, 0x00, 0x00, 0x00,
  0x04, 0x00, 0x00, 0x00, 0x00, 0x00, 0x00, 0x02, 0x38, 0x00, 0x00, 0x00,
  0x14, 0xff, 0xff, 0xff, 0x08, 0x00, 0x00, 0x00, 0x10, 0x00, 0x00, 0x00,
  0x01, 0x00, 0x00, 0x00, 0x00, 0x00, 0x00, 0x00, 0x00, 0x00, 0x00, 0x00,
  0x01, 0x00, 0x00, 0x00, 0xb5, 0xd0, 0x17, 0x39, 0x0d, 0x00, 0x00, 0x00,
  0x66, 0x69, 0x6e, 0x61, 0x6c, 0x5f, 0x66, 0x63, 0x5f, 0x62, 0x69, 0x61,
  0x73, 0x00, 0x00, 0x00, 0x01, 0x00, 0x00, 0x00, 0x06, 0x00, 0x00, 0x00,
  0x82, 0xff, 0xff, 0xff, 0x00, 0x00, 0x00, 0x01, 0x14, 0x00, 0x00, 0x00,
  0x14, 0x00, 0x00, 0x00, 0x03, 0x00, 0x00, 0x00, 0x00, 0x00, 0x00, 0x02,
  0x1c, 0x00, 0x00, 0x00, 0xc4, 0xff, 0xff, 0xff, 0x0f, 0x00, 0x00, 0x00,
  0x52, 0x65, 0x73, 0x68, 0x61, 0x70, 0x65, 0x5f, 0x33, 0x2f, 0x73, 0x68,
  0x61, 0x70, 0x65, 0x00, 0x01, 0x00, 0x00, 0x00, 0x02, 0x00, 0x00, 0x00,
  0xbe, 0xff, 0xff, 0xff, 0x00, 0x00, 0x00, 0x01, 0x18, 0x00, 0x00, 0x00,
  0x18, 0x00, 0x00, 0x00, 0x02, 0x00, 0x00, 0x00, 0x00, 0x00, 0x00, 0x02,
  0x20, 0x00, 0x00, 0x00, 0x04, 0x00, 0x04, 0x00, 0x04, 0x00, 0x00, 0x00,
  0x0f, 0x00, 0x00, 0x00, 0x52, 0x65, 0x73, 0x68, 0x61, 0x70, 0x65, 0x5f,
  0x32, 0x2f, 0x73, 0x68, 0x61, 0x70, 0x65, 0x00, 0x01, 0x00, 0x00, 0x00,
  0x04, 0x00, 0x00, 0x00, 0x00, 0x00, 0x16, 0x00, 0x1c, 0x00, 0x18, 0x00,
  0x17, 0x00, 0x10, 0x00, 0x0c, 0x00, 0x08, 0x00, 0x00, 0x00, 0x00, 0x00,
  0x00, 0x00, 0x07, 0x00, 0x16, 0x00, 0x00, 0x00, 0x00, 0x00, 0x00, 0x01,
  0x20, 0x00, 0x00, 0x00, 0x40, 0x00, 0x00, 0x00, 0x01, 0x00, 0x00, 0x00,
  0x00, 0x00, 0x00, 0x09, 0x44, 0x00, 0x00, 0x00, 0x0c, 0x00, 0x0c, 0x00,
  0x00, 0x00, 0x00, 0x00, 0x08, 0x00, 0x04, 0x00, 0x0c, 0x00, 0x00, 0x00,
  0x08, 0x00, 0x00, 0x00, 0x14, 0x00, 0x00, 0x00, 0x01, 0x00, 0x00, 0x00,
  0x80, 0xff, 0xff, 0xff, 0xff, 0xff, 0xff, 0xff, 0x00, 0x00, 0x00, 0x00,
  0x01, 0x00, 0x00, 0x00, 0x00, 0x00, 0xd0, 0x3d, 0x09, 0x00, 0x00, 0x00,
  0x52, 0x65, 0x73, 0x68, 0x61, 0x70, 0x65, 0x5f, 0x31, 0x00, 0x00, 0x00,
  0x02, 0x00, 0x00, 0x00, 0x01, 0x00, 0x00, 0x00, 0xa8, 0x07, 0x00, 0x00,
  0x04, 0x00, 0x00, 0x00, 0x58, 0x00, 0x00, 0x00, 0x38, 0x00, 0x00, 0x00,
  0x18, 0x00, 0x00, 0x00, 0x04, 0x00, 0x00, 0x00, 0xe0, 0xff, 0xff, 0xff,
  0x19, 0x00, 0x00, 0x00, 0x02, 0x00, 0x00, 0x00, 0x00, 0x00, 0x00, 0x19,
  0xf0, 0xff, 0xff, 0xff, 0x09, 0x00, 0x00, 0x00, 0x04, 0x00, 0x00, 0x00,
  0x00, 0x00, 0x00, 0x09, 0x0c, 0x00, 0x10, 0x00, 0x0f, 0x00, 0x00, 0x00,
  0x08, 0x00, 0x04, 0x00, 0x0c, 0x00, 0x00, 0x00, 0x03, 0x00, 0x00, 0x00,
  0x03, 0x00, 0x00, 0x00, 0x00, 0x00, 0x00, 0x03, 0x0c, 0x00, 0x0c, 0x00,
  0x0b, 0x00, 0x00, 0x00, 0x00, 0x00, 0x04, 0x00, 0x0c, 0x00, 0x00, 0x00,
  0x16, 0x00, 0x00, 0x00, 0x00, 0x00, 0x00, 0x16
};
const int g_model_len = 9296;
